{
  "gence": 28255,
  "åĪ¶": 43316,
  "AGER": 27650,
  "ĠTalk": 18976,
  "ÑģÐ»Ð°Ð²": 132370,
  ".ExecuteNonQuery": 32910,
  "Ġrepairs": 30186,
  "ĠShortcut": 95465,
  "Ĩ": 228,
  "ĠEntre": 41659,
  "snap": 48854,
  "ĠTempl": 78810,
  "-threat": 55744,
  "äº¿": 53356,
  "ðŁİĳ": 151387,
  "à¨Ĩ": 148973,
  "ĠFarr": 73906,
  "ĠTAB": 49176,
  "Ġconfirms": 42396,
  "Ġhorribly": 76004,
  ".shopping": 82018,
  "ĠMovement": 27998,
  "ĠTháº¿": 131346,
  "Ġ×ŀ×©×Ĺ×§": 128101,
  "PU": 6325,
  "Requests": 35295,
  "ivirus": 57913,
  "Ġtunnels": 52727,
  "Ġzs": 68512,
  "[A": 22519,
  "arte": 19840,
  "åĽŀè°ĥ": 115392,
  "[idx": 11597,
  "NOTE": 27792,
  "CLR": 74058,
  "Ø±Ø©": 124653,
  "Ģ": 222,
  "Ġmooie": 75653,
  "çĹħåĽł": 113422,
  "iffany": 55082,
  "Ġhammer": 23457,
  "ĠÑģÐ¾Ð¾ÑĤÐ²ÐµÑĤÑģÑĤÐ²Ð¸Ð¸": 136785,
  ".N": 2067,
  "ðĿķ´": 151334,
  "ĉsort": 39487,
  "éķ¿å¾ģ": 111159,
  "asn": 65536,
  "è°ĩ": 120523,
  "cation": 64882,
  "Ġkitt": 66612,
  "urd": 16081,
  "æ½Ķ": 115258,
  "MH": 48202,
  "æľĪä¸ŃæĹ¬": 109799,
  "Ġtapered": 94055,
  ".create": 2520,
  ")},": 42419,
  "åĳ¼å£°": 118289,
  "_SUFFIX": 63825,
  "íĽĪ": 138108,
  "Roboto": 53532,
  "ÄĻÅ¼": 80918,
  "ÐµÐ¿": 66024,
  "éļ¾æĢª": 113987,
  "Ġchipset": 91714,
  "St": 623,
  "ãĥķãĤ¡ãĥ³": 131950,
  "Ġdestroyer": 95189,
  "Commission": 73750,
  "Ġgenerals": 70067,
  "Ġmonitors": 36477,
  "ì§¥": 151030,
  "_Q": 13337,
  "Ġallowance": 40358,
  "_rp": 83440,
  "ä½ķæĹ¶": 107995,
  "Ġindexes": 24953,
  "éĢ¡": 120540,
  "èŀĥ": 103829,
  "Ġglare": 80134,
  "ĠtextSize": 77400,
  "Ġpet": 6753,
  "ĠAuthService": 38598,
  "/**čĊ": 7534,
  "META": 79886,
  "éĢīåĩº": 115751,
  "se": 325,
  "Ġoutdoor": 15789,
  "Ġss": 10870,
  "é¼į": 122061,
  "TOOLS": 93932,
  "wick": 21188,
  "ðŁĴ¶": 146959,
  "à¸§à¸ĩ": 125116,
  "éĵĿ": 102383,
  "Ġrunning": 4303,
  "çĽı": 111314,
  "_timing": 70973,
  "ervention": 46598,
  "é³ī": 123647,
  "(fl": 49747,
  "à¹Ħà¸¡à¹Īà¸ªà¸²à¸¡à¸²à¸£à¸ĸ": 134334,
  "çīĻ": 100446,
  "ĠStarbucks": 48784,
  ".dictionary": 82136,
  "`);Ċ": 20625,
  "ä¼Ļä¼´": 100577,
  "é¢łè¦Ĩ": 109884,
  ".Diff": 98063,
  "\"s": 40787,
  "Ġintim": 21947,
  "ï§ģ": 149819,
  "Ġanale": 78237,
  "ĠMaryland": 22652,
  "èµ¢å®¶": 116264,
  "ä¸įç¦ģ": 106659,
  "âĢĭĊĊ": 33621,
  "Ġtersebut": 55766,
  "Ġmam": 32720,
  "remark": 37448,
  "åĲī": 100188,
  "à¶Ń": 148981,
  "çĪµå£«": 116862,
  "Northern": 71091,
  "âĿĿ": 145439,
  "Ġrods": 56900,
  "Ġranges": 21283,
  "è´¢": 99421,
  "Ġquarry": 36070,
  "ĠEncryption": 62055,
  "Ġhablar": 95743,
  "à¸Ľà¸£à¸ªà¸´": 139447,
  "ð¬ī¼": 119942,
  "åŁºçŁ³": 116300,
  ":?": 76475,
  "Ġstrawberries": 75103,
  "_PRICE": 51900,
  "å¯¶": 107283,
  "(Pos": 97478,
  "AndUpdate": 56365,
  "ĠSchools": 30383,
  "_CELL": 59109,
  "ĠStrap": 84406,
  "RGBA": 58927,
  "][_": 94692,
  "Ġchiá»ģu": 131149,
  "ĠRedirectToAction": 28177,
  "ĠìĿ´ë²Ī": 132183,
  "_atom": 42292,
  "(HttpServletRequest": 22861,
  "_IDLE": 46390,
  "RK": 77020,
  "èĩ»": 112542,
  "Ġvaginal": 57059,
  "ĠBounds": 69130,
  "Ġela": 50307,
  "Ġexpressly": 52511,
  "sar": 98082,
  ".factory": 14081,
  "_daily": 64530,
  "Ġ×ľ×Ķ×Ļ×Ľ×ł×¡": 141858,
  "#![": 85366,
  "alt": 3145,
  "Ġconversion": 14409,
  "ï®ĭ": 146649,
  "Due": 33060,
  "Ġland": 4268,
  "ĠrÃ©gime": 137269,
  "\")),": 35674,
  "ADM": 50249,
  ".\"&": 83784,
  "Ġcuck": 62179,
  "statt": 96346,
  "å¾ģç¨ĭ": 103703,
  "åĩºåħ¥å¢ĥ": 117872,
  "schlÃ¼": 143340,
  "Gene": 63522,
  "åģľçĶµ": 116285,
  "åĪĿä¸Ń": 105328,
  "ĠÑĤÐ¸Ð¿": 63833,
  "hx": 58424,
  "isChecked": 53882,
  "ĠKafka": 57025,
  "à¸Ļà¸¶à¸ĩ": 139069,
  "ĠPerforming": 69648,
  "ä»¥èī²åĪĹ": 108781,
  "íĳľ": 126414,
  "à¹Ģà¸¥": 123964,
  "ĠBour": 38375,
  "çķ¸": 103722,
  "rot": 4640,
  "Ġweed": 39375,
  "å¤§å®¶éĥ½åľ¨": 110220,
  "Ġsenior": 9990,
  "æŁ¥å°ģ": 117579,
  "ĠlÃ©g": 71983,
  "ĠLil": 40478,
  "><![": 73199,
  ".GridView": 74656,
  "Coeff": 46802,
  "ĠëĤ´ê°Ģ": 131277,
  "edelta": 46854,
  ".uk": 15194,
  "ĠÐ·Ð°Ð´": 52180,
  "Ġsher": 34213,
  "Ġruler": 47980,
  "ç¾Ł": 120769,
  "Ġeleven": 44214,
  "Ġdealers": 26199,
  "ĠyÃ¶n": 130490,
  "Ġchemotherapy": 61630,
  "commons": 52361,
  "ĠCleveland": 23475,
  "ìĺµ": 144020,
  "ĉresult": 9559,
  "atsapp": 71444,
  "Ġcreepy": 50840,
  "éĶ¼": 123350,
  ".Activity": 24925,
  "ĠRoz": 90480,
  "ĠÐ»ÐµÐ³": 133362,
  "Ġreusable": 61571,
  "Ġdebit": 45353,
  "coil": 85737,
  "á´µ": 146485,
  "à¸¥à¸¸à¸¢": 143094,
  "ĠÙĦÙĪ": 129768,
  "Ġvibrator": 60724,
  "ä¸įä¹ħåīį": 115467,
  "(m": 1255,
  "Ġcites": 57173,
  "ocÃª": 45759,
  "ĠSvg": 81055,
  "äºĮèĥİ": 110433,
  "ĠKm": 92482,
  "ê°ģ": 126317,
  "_relations": 94221,
  "ĠmÄĻsk": 143931,
  ".serial": 29818,
  "Ġmighty": 41627,
  "weit": 73411,
  "çĴ°å¢ĥ": 108131,
  "æĤ¯": 119393,
  "Ġhely": 90115,
  "ĉeval": 93413,
  ".SaveChanges": 20665,
  "Ġ'#{": 77491,
  "etype": 16214,
  "Ø§Ø¹": 123862,
  "Ġplains": 77366,
  "Ġpermalink": 79228,
  "''": 4605,
  "âĵħ": 146441,
  "(core": 47867,
  "ĠÐ¾Ð¶Ð¸": 137928,
  "çĲĥéĺŁ": 102151,
  "ĠÑģÐ¿Ð¸Ð½": 142186,
  "ë§Ĳ": 127452,
  "ÑģÑĤ": 6597,
  "çĴĲ": 113984,
  "spoÅĤeczn": 132533,
  "ĠCertified": 35442,
  "å®Į": 46306,
  "è°¼": 123218,
  "ĠImageView": 25677,
  "ĠTrot": 89230,
  "especially": 34946,
  "à¹Ħà¸«à¸Ļ": 129124,
  "áį£": 149570,
  "(body": 15225,
  "Ġscrambled": 70478,
  "iness": 1880,
  "Ñ«": 146872,
  "ìĦŃ": 143948,
  "preg": 29485,
  "Ġundoubtedly": 36948,
  "æ°´æ³µ": 117484,
  "×¨×Ĳ×ľ": 124791,
  "ÙĪØ§Ø¡": 126924,
  "Ç·": 148277,
  "ãĥķãĥ¬": 127151,
  "è©³ãģĹãģı": 140192,
  "à¹Ģà¸¢à¸µà¹Īà¸¢": 127740,
  "(kernel": 55157,
  "vice": 1768,
  "Ġmerges": 80953,
  "TLS": 45439,
  "Ġglam": 41012,
  ".phone": 24830,
  "æ¨Ĺ": 121576,
  "ĠChurch": 9257,
  "ĠsetSize": 83859,
  "buff": 25976,
  "íķĺìĭľëĬĶ": 140641,
  "ĠIDD": 80883,
  "åħ¸åŀĭ": 101460,
  "ĠSandbox": 96860,
  "ĠParcel": 42994,
  ".Touch": 79940,
  "åľ¨å¸Ĥåľºä¸Ĭ": 112524,
  "ĠExtend": 70083,
  "ĠconstruÃ§Ã£o": 138978,
  "æīĵå¥½": 109811,
  "ĠoluÅŁ": 128065,
  "Ġacts": 14056,
  "ðŁĹ»": 146909,
  ".categories": 42436,
  "InnerHTML": 97214,
  "Ø¶Øº": 132336,
  "ðŁ¤ŀ": 146224,
  "é£Ķ": 123232,
  "à¸ªà¸·": 139472,
  "Ġhere": 1588,
  "ounded": 13082,
  "-fly": 82885,
  "çĩļ": 123578,
  "(reg": 18390,
  "Albert": 66622,
  "ãģ¦ãģĦãĤĭ": 125024,
  "Ġ--Ċ": 39514,
  "craper": 86282,
  "ðŁĸķ": 147732,
  "ç½±": 121433,
  "Ġav": 1822,
  "æ´Ľ": 100748,
  "Absent": 80251,
  "ðŁ¤§": 147352,
  ",data": 26634,
  "autiful": 34677,
  "_ans": 60801,
  "×ª×©×ķ×ĳ": 137481,
  "Ġdeterior": 38336,
  "ĠEnter": 11252,
  ".!": 61350,
  "Ġlimburg": 60231,
  "Ġartificial": 20443,
  "ĠScience": 9965,
  "Ġalleles": 97160,
  "×Ķ×Ļ×¡×ĺ": 127823,
  "Acts": 92224,
  "×ŀ×ķ×ĵ×¢": 141826,
  "Ġauthorized": 18630,
  "ĠSER": 13984,
  "×¡×¤×ķ×¨×ĺ": 132806,
  "wanted": 86592,
  "ØªØ¨Ø§Ø¯ÙĦ": 138563,
  "LOCAL": 39081,
  "æĩ·": 108429,
  "ticket": 26534,
  "éĶ£": 115807,
  "ĠMargaret": 37549,
  "éľ¹": 119527,
  ".Compare": 32377,
  "å¤ĸå½¢": 109262,
  "proc": 15782,
  "ãĢĵ": 144972,
  "ç¹ŀ": 118775,
  "rganization": 68364,
  "Ġ×ĳ×Ĵ×Ļ×ľ": 137363,
  "_-": 39311,
  "Tx": 31584,
  "ĠÐ²ÑģÐµÐ¹": 137189,
  "ï¨ĳ": 145155,
  "ĠProgressDialog": 61831,
  "ï½Ł": 150149,
  "ĠÑģÐµÐ±": 126564,
  "åĪĽä½ľèĢħ": 118297,
  "âĦª": 148831,
  "Ġketogenic": 93750,
  "ynomials": 76961,
  "×¢×©×ķ": 131716,
  "å¬¿": 123733,
  "Ġ<<=": 51178,
  "çĹħäºº": 104693,
  "Anywhere": 73325,
  "×¢×ĳ×Ļ×¨": 127054,
  "ç¨ĭåº¦": 100069,
  "ëļĿ": 144762,
  "å¥ĩèĳ©": 113660,
  "ĠDetermines": 52712,
  "Ø¹Ø¬Ø²": 142678,
  "ĉprops": 77691,
  "æīĭä¸ŃçļĦ": 108671,
  "Ġexist": 3000,
  "Ġmoo": 45871,
  "Ġcáº§m": 134650,
  "å£ģçº¸": 112114,
  ".vel": 55710,
  "èĤłéģĵ": 113217,
  "èģĶåĬ¨": 105176,
  "çļĦåĲĦé¡¹": 110059,
  "Ġcyber": 20847,
  "æ¡´": 120609,
  "Ġmaterially": 89594,
  "Ġnano": 50493,
  "ĠthuáºŃn": 131678,
  "æ»ŀåĲİ": 113623,
  "Ġ×ķ×ľ": 126209,
  "encoded": 19329,
  "æł¹åŁº": 110381,
  "éĻĭ": 119182,
  "Ġlantern": 73165,
  "çĿĽ": 101204,
  "ĠBare": 60792,
  "à¹Ģà¸§à¸Ńà¸£à¹Į": 134447,
  "_fx": 62691,
  "ï®ı": 151451,
  ".space": 35883,
  ".ShowDialog": 34912,
  "Ġxrange": 33073,
  "_Category": 80414,
  "_isr": 88985,
  "ĠØ£Ø¨ÙĬ": 133423,
  ":\")": 90220,
  "-E": 13431,
  "Ġremin": 42550,
  ".player": 12257,
  "æĬķå½±": 111367,
  "Ġconosc": 83069,
  "Ġsuccessors": 74896,
  "Ann": 27093,
  "ð¥ĸ¨": 123677,
  ".TIME": 86201,
  "_model": 5047,
  "ĠÐ·Ð°Ð¿Ð¸Ñģ": 55511,
  "å¥¹æĺ¯": 107852,
  "'b": 90853,
  "Ġauthorize": 36826,
  "èĹ¥": 106838,
  "burst": 57738,
  "losures": 41206,
  "ĠmimeType": 71826,
  "ÑĤÑĢÐ°ÑĤ": 134513,
  ".Maybe": 98212,
  "ê¡ĳ": 146855,
  "woord": 72506,
  "ìİĦ": 144750,
  "åıįå¼¹": 105592,
  "//#": 14206,
  "Åļ": 132569,
  "Ġ\"}\";Ċ": 98274,
  "{|": 46115,
  "++ĊĊ": 81452,
  "Ġcirculated": 62873,
  "_gem": 87135,
  ".literal": 52808,
  "Ġlevy": 76062,
  "íĳĢ": 148212,
  "Enviar": 85781,
  "Ġvill": 8901,
  "ĠÑħÐ¾Ð·ÑıÐ¹ÑģÑĤÐ²": 140222,
  "OLUMNS": 48770,
  "å¤Ħå¢ĥ": 113534,
  "Ġerb": 67648,
  "åĪĽå»ºå·¥ä½ľ": 117495,
  "ĠÐ´Ð¾Ð»Ð¶": 55349,
  "ĠÙĨØ·Ø§ÙĤ": 143684,
  "_actual": 40149,
  "ĠprincipalColumn": 58801,
  "\":\"\",Ċ": 42398,
  "ĠKremlin": 50324,
  "ï¼ģ\",": 83665,
  "ÙĥÙĨÙĬØ³Ø©": 143662,
  "nob": 55023,
  "à½ĳ": 147401,
  "ç¾İå¦Ĩ": 118529,
  "Ġowe": 41110,
  "ĠonViewCreated": 86634,
  "Ġcaching": 47430,
  "å¹´èĩ³": 108798,
  "owÄħ": 128891,
  "ĠhÃ¶": 42759,
  "éĽ£ãģĹãģĦ": 133073,
  "(Language": 83670,
  "ìĥĨ": 149228,
  "ĠOPTIONAL": 76232,
  "Ð¸Ð½Ð´Ð¸Ð²": 138150,
  "ÑĢÐµÑģ": 127170,
  "AAD": 81380,
  "Areas": 71237,
  "_disable": 33842,
  "ĠIndividuals": 61425,
  "ĠbyteArray": 75003,
  "áĳĸ": 150528,
  "ederland": 39355,
  "ĠVeranst": 92610,
  "ãĥ¡ãĥĥãĤ»ãĥ¼ãĤ¸": 140483,
  "å¤ªå¤ļçļĦ": 108821,
  "æĢĶ": 114938,
  "During": 16014,
  "ç¥ĩ": 119983,
  "ĠCONTRIBUTORS": 21740,
  "Ġordained": 85624,
  "ĠÑįÐº": 80657,
  "Ġappe": 2642,
  "Ġbegr": 87541,
  "ä¾Ľ": 83744,
  "å°Ķæĸ¯": 111164,
  "Ġfanc": 80597,
  ".f": 833,
  "ç¨ł": 112705,
  "Ġclearly": 9355,
  "ĠtÆ°": 128379,
  "ĠTrick": 69225,
  "Ð½ÑģÑĤ": 130305,
  "Ġtower": 21271,
  "åĸĩ": 103719,
  ".\")ĊĊ": 31225,
  "Ġiterative": 86875,
  "aclass": 67528,
  "appearance": 96655,
  "Ġopts": 12185,
  "Ġtrolling": 89510,
  "&eacute": 77573,
  "ĠGest": 53899,
  "pa": 6595,
  "Ø³ÙĬØ¯": 133783,
  "Bruce": 78479,
  "á¹Ń": 145243,
  "ĠÐ¿Ð¾Ð²": 94934,
  "à¸Ńà¸¢à¸²à¸ģ": 125630,
  "Ġforgive": 43391,
  "çľĭèµ·ä¾Ĩ": 117518,
  "ĠcolumnHeader": 95624,
  "æ°®": 109958,
  "Ġ'/'Ċ": 68133,
  "Î¿Ïħ": 72886,
  "kraine": 77736,
  "×ŀ×ĵ×ĵ": 139179,
  "Ġmeans": 3363,
  "ãģ¤ãģ®": 131057,
  "(off": 85103,
  "Ġorganized": 16645,
  "Ġwifi": 33417,
  "æĺ¯ä¸įåı¯èĥ½": 112807,
  "Ġlongitude": 20515,
  "umor": 68261,
  "lng": 20810,
  "ĠÐļ": 35379,
  "Èĺ": 146587,
  "mousedown": 56638,
  "ĠRams": 37503,
  "Ġvisionary": 86390,
  "entionPolicy": 78165,
  "ä¸¤åĳ¨": 113151,
  "ĠPortable": 41485,
  "BILE": 54061,
  "à¸Ļà¹Īà¸²": 125112,
  "é¥¶": 106737,
  "ĠmarÃ§o": 138323,
  "ä¸Ķ": 100136,
  "á¼ħ": 149282,
  "Remark": 48845,
  "LinkedIn": 75203,
  "à¸Ħà¸£à¸´": 140723,
  "èĢĥãģĪãģ¦": 132997,
  "æĤīå°¼": 117892,
  "Ġáº¤": 142690,
  "Ġforever": 15683,
  "Ġê·¸ê²ĥìĿĢ": 136742,
  "+t": 41701,
  "_layer": 12680,
  "åĮ»éĻ¢": 100634,
  "ÅĤoÅĽÄĩ": 132522,
  "ĠAff": 9748,
  "ngrx": 75184,
  "Ġfilmy": 89394,
  "HexString": 49137,
  "ĠktÃ³rego": 133031,
  "_unlock": 19465,
  "ç»Īèº«": 108273,
  "æİ·": 113024,
  "prove": 34463,
  "ĠLies": 77086,
  "Ġmessing": 75751,
  "Ġstir": 23065,
  "æ¿ł": 121941,
  "íĹĽ": 144673,
  "Ģìŀ¥": 54470,
  "Ġpens": 22601,
  "ĠGomez": 62298,
  "æĿĳæ°ĳä»¬": 115967,
  "_lazy": 49646,
  "ĠForeignKey": 78915,
  "ĠÐ³Ð¾Ñģ": 126081,
  "ÅĦs": 135689,
  "ĉmap": 19567,
  "è½¬åĬ¨": 113753,
  "åı°çģ£": 105144,
  ".GetResponse": 76619,
  "-you": 45417,
  "Ġsquid": 89175,
  "ĠViá»ĩc": 133817,
  "ïºª": 144376,
  "à¸ļà¸±à¸Ļà¹Ģà¸Ĺà¸´à¸ĩ": 141394,
  "å¼ĺ": 102859,
  "ĠØ³ÙĨÙĪØ§Øª": 132351,
  "mostat": 54725,
  "ê°¸": 145485,
  "_human": 86247,
  "åİ»çľĭ": 106951,
  "à½ħ": 151459,
  "ĠpoblaciÃ³n": 139202,
  "sq": 28343,
  "headed": 62500,
  "Ġpreserving": 46895,
  "Ġaspect": 12893,
  "Ġpounds": 16302,
  "çĥ¯": 103771,
  "ĠÄ°s": 130173,
  "eff": 6445,
  "Ġapplies": 16790,
  ".goods": 55739,
  "Ġrented": 48859,
  "Ġdez": 70768,
  "_depart": 69865,
  "ì»¸": 144874,
  "ð«į": 101027,
  "áĬį": 150499,
  "ĠBelgi": 143391,
  "Index": 1552,
  "ocrats": 54106,
  "CATEGORY": 93027,
  "_J": 10598,
  "UIS": 28521,
  "THE": 17229,
  "æĤªãģĦ": 132430,
  "é¦Ŀ": 123358,
  ".On": 8071,
  "']]);Ċ": 79218,
  "ðŁįŃ": 146335,
  "ĠtÃ¼m": 128817,
  "ìŀ¥ëĭĺ": 140236,
  "çº¹çĲĨ": 118526,
  "Ġdensity": 17457,
  "çĴĭ": 119109,
  "Ð²Ð¾Ð¹": 129769,
  "ĠSoap": 60631,
  ".hover": 78423,
  "ĠDom": 20751,
  "å±Ĭæ¯ķä¸ļçĶŁ": 118127,
  ".getDrawable": 86137,
  "ĠExtreme": 49395,
  "ĠSPEC": 47104,
  "Ġgroupe": 56851,
  ":M": 65207,
  "ĠÐ¿Ð¾Ð·Ð²": 126060,
  "æĬĵä½ı": 104609,
  "ï½¶": 144414,
  "-establish": 47487,
  "_courses": 72551,
  "ÙĬÙĥ": 126300,
  "Ġlyn": 89203,
  "ïºı": 145204,
  "éħ¥": 109881,
  "onym": 7831,
  "dropdown": 11138,
  "Ġ×Ĳ×ķ×ª": 124507,
  "è¦ĨçĽĸ": 100795,
  "ÑģÑĤÑĥÐ¿Ð¸Ð»": 141472,
  "è®²è¿°äºĨ": 110593,
  "ĠByrne": 80321,
  "Ġ×Ķ×ķ": 128437,
  "Ø±ÙĬÙĥ": 135935,
  "åĽŀæĥ³": 114877,
  ".ver": 67667,
  "Continue": 23526,
  "ĠTerr": 17655,
  "associate": 71531,
  "Ġacos": 80211,
  "licing": 89114,
  "è¿ĩ": 38182,
  "Ġ×Ķ×ł": 125448,
  "ðŁĵ¤": 148270,
  "ìĸĮ": 145548,
  "Ġsecret": 6234,
  "donnees": 98553,
  "Ġglance": 33422,
  "éºĳ": 123729,
  "(newValue": 55186,
  "ĠlocationManager": 68732,
  "Ġè¡": 77407,
  "ĠLamp": 41177,
  "ÊĪ": 149486,
  "éĹ½": 107509,
  "ĠTibetan": 71974,
  "åİŁåŃĲ": 113359,
  "Ġå¾": 84141,
  "Amb": 54032,
  "ocking": 70091,
  "éĽľ": 116756,
  "bl": 2024,
  "èĢĮå·²": 104606,
  "å±ıéļľ": 114194,
  "UBLE": 21734,
  "idar": 92902,
  "ĠíĸīëıĻ": 140692,
  "æ°Ķæ°Ľ": 106283,
  "ìĸĬ": 150309,
  "DetailView": 96820,
  "ðŁĮ¯": 148706,
  "ĠKb": 98086,
  "(_,": 41117,
  "æĬĹæĹ¥": 113538,
  "Ġtechnical": 10916,
  "ĉopen": 52199,
  "ç´ħ": 105693,
  "ROADCAST": 69519,
  "(routes": 44888,
  "å¿įåıĹ": 110313,
  "çŃīåİŁåĽł": 115660,
  ".eof": 72054,
  "waÅ¼": 126149,
  "à¸ķà¹Īà¸²à¸ĩà¹Ĩ": 129114,
  ".partial": 82899,
  "ÐĽÐĺ": 140773,
  "ĠScientists": 56016,
  "çļĦäººçī©": 109624,
  "ĠÃ©lÃ©ments": 141067,
  "ĠPetsc": 52951,
  "=en": 61757,
  "Ġpile": 26306,
  "ðŁĳĥ": 147236,
  "ĠOVERRIDE": 87301,
  "åĨ³ä¸į": 113179,
  "íħ¨": 145528,
  "hhh": 90064,
  "_REDIRECT": 90279,
  "Ġmyths": 50186,
  "Ġatheists": 78525,
  "/Web": 50438,
  "Ġgeneral": 4586,
  "(Register": 79203,
  "Selectors": 96995,
  "ä¿Ĺç§°": 113834,
  "()\"Ċ": 99144,
  "=\"<?": 4252,
  "ïºī": 149143,
  "addons": 77270,
  "åħ¨åĮº": 106282,
  "acons": 75444,
  "AVA": 35610,
  "ĠEcon": 12413,
  "à¸ļà¸£à¸´à¸©à¸±": 129049,
  "Ġow": 15570,
  "Ġherein": 35781,
  "Ġ×©": 87798,
  ".Site": 68991,
  "Ġsteroids": 57061,
  "é¹ª": 121910,
  "xFFFF": 14384,
  "Ġchart": 9487,
  "å¸ĪèĮĥ": 103176,
  "æľ±": 104000,
  "/ĊĊĊĊ": 75960,
  "è¯ķ": 41321,
  ".Course": 72297,
  "á¾´": 149625,
  "CID": 54146,
  "#from": 62525,
  "çıĬółĦģ": 119349,
  "ĠYaz": 88570,
  ".setMinimum": 84736,
  "Ġ×ķ×ľ×Ĳ": 126273,
  "hus": 12800,
  "else": 1503,
  "-found": 26704,
  "Ø¨ÙĬÙĨ": 129893,
  "ĠmouseClicked": 85739,
  "ÐĿÐ«": 141352,
  "ĠSYN": 61694,
  "ĠtendrÃ¡": 135246,
  "ĠHindu": 35042,
  "Ġchi": 25798,
  "åľ¨é¦Ļæ¸¯": 108995,
  "Ġlugar": 33900,
  "ĠATK": 65335,
  "Shift": 24841,
  "ĠØ§ÙĦÙĤØ±": 125993,
  "Ø®Ø¨": 125940,
  "ÑģÑĤÑĭ": 132999,
  "active": 3028,
  "Ġre": 312,
  ">ĊĊĊĊĊ": 75719,
  "ĠSob": 66437,
  "áĹĲ": 149576,
  "éº¹": 123422,
  "--": 313,
  "ĠFLT": 96061,
  "æĺ½": 122457,
  "ĠRepresentative": 37266,
  ".Stdout": 83225,
  "Ġvoter": 25323,
  "/form": 20260,
  "Ġpager": 52588,
  "ĠTong": 50391,
  "ĠUserName": 47398,
  "è·ĳäºĨ": 111171,
  "ð": 172,
  "æŀ¸æĿŀ": 114002,
  "Time": 1462,
  "ĠØ¨ÙĦ": 126420,
  "ancers": 31742,
  "ĠÐ·Ð°Ð¿ÑĢÐ¾Ñģ": 69083,
  "Ġ<<<": 43662,
  "Ġclumsy": 93218,
  "ĠYas": 69928,
  "ï¥Ń": 148193,
  "çİ°éĺ¶æ®µ": 113315,
  "xs": 18561,
  "ĠREFER": 68685,
  "Ġwelded": 81061,
  "ĠÙĪØ²ÙĬØ±": 130316,
  "Ã¤re": 46686,
  ")ĊĊĊ": 3623,
  "à¹Ģà¸ī": 126007,
  "â»Ŀ": 148472,
  "ä¼Ī": 122165,
  "://%": 86791,
  "Ø¸Ùħ": 125362,
  "Ġholds": 9982,
  "ëĦĮ": 144413,
  "ĠÐºÐ¾Ð¼Ð¸ÑģÑģÐ¸": 142048,
  "ĠBlessed": 75997,
  ".bi": 52502,
  "æº¢ä»·": 114666,
  "Ġopport": 4800,
  "/slider": 90739,
  ".toolStripButton": 66572,
  "ä»»æĢ§": 115416,
  "Framework": 14837,
  "existent": 64085,
  "ëĦµ": 146153,
  "/E": 25646,
  "Ġslicing": 84915,
  "Baseline": 64611,
  "ĠXxx": 49028,
  "æľ¬åľºæ¯ĶèµĽ": 118729,
  "ĠCoalition": 35792,
  "ĠLtd": 12324,
  "Ð°Ð»ÑĮÐ½Ð¾Ð¹": 132661,
  "ASN": 68134,
  "ĠQMainWindow": 92922,
  "Velocity": 24179,
  "ĠColum": 13901,
  "Ġcharts": 26131,
  "Exercise": 52709,
  "à¸ªà¸²à¹Ģà¸«à¸ķà¸¸": 139665,
  "):čĊčĊ": 56002,
  "atures": 2789,
  "çļĦåĪ©çĽĬ": 107588,
  "(pe": 65079,
  ".TODO": 90988,
  "ĠØ£ÙĬØ¶ÙĭØ§": 138195,
  "ians": 5380,
  "éªĽ": 121083,
  "å¾ĳ": 119061,
  "Ġoffences": 50212,
  "åģ»": 120730,
  "_timestamp": 23073,
  "Chunks": 89681,
  "Ġdiscipl": 15501,
  "ĠÐ¿Ð¾Ð·Ð²Ð¾Ð»": 142224,
  "attend": 56458,
  "middleware": 26624,
  "ĠÐ¿ÐµÑĢÐµÑħÐ¾Ð´": 140312,
  ".ent": 63575,
  "_Label": 53557,
  "Ġrealised": 40093,
  "Ġhurdles": 72535,
  "ĉĉĉĠĠĠĠĠĠĠĠ": 80755,
  "ïŃĳ": 148673,
  "_tile": 29844,
  "atabases": 23822,
  "idden": 2854,
  ".onNext": 88736,
  "ĠÄĲiá»ģu": 130406,
  "åŁĥåıĬ": 109943,
  "Ġverts": 59414,
  "Debug": 7939,
  "acja": 51689,
  "Ġpane": 37322,
  "åĲįçīĩ": 108973,
  "ĠØ§ÙĦØ°Ùī": 137453,
  "ëĤ¼": 144038,
  "ãģĽãģļ": 134998,
  "Ġcapit": 60410,
  "èĢģçĪ·": 103752,
  "Ġdeepcopy": 55558,
  "_DGRAM": 92273,
  "×ª×Ľ×ķ": 134807,
  "/use": 62272,
  "_Cell": 54454,
  "è½¦è¾Ĩ": 103978,
  "Ġseries": 4013,
  "ĠShip": 26803,
  "Ġawake": 34347,
  "ĠÐ¾Ð±ÑĬ": 47340,
  "ï¶°": 151234,
  ".ToolStripSeparator": 63149,
  "Ġdiscovered": 11105,
  "Ġemphasizes": 65059,
  ">\";čĊ": 20078,
  "äºĪä»¥": 104744,
  "offset": 3176,
  "Ġinterns": 98834,
  "×¤×Ļ×Ŀ": 126280,
  "COMM": 55554,
  "ĠMasc": 88898,
  "èĴ½": 121127,
  "Ġutilities": 29419,
  "ll": 654,
  "tex": 33344,
  "Ġchef": 29706,
  "Æ°á»Ľi": 125628,
  "Ġremote": 8699,
  "å»ºåħļ": 116633,
  "ĠReve": 66553,
  "ĠMidwest": 51157,
  "_txn": 92299,
  "è°·çĪ±åĩĮ": 116087,
  "ĠÐ¡ÐµÑĢÐ³ÐµÐ¹": 142420,
  ".Floor": 77649,
  "Ø¯ÙĨ": 125837,
  "å½¬": 107351,
  "å¤Ń": 117916,
  "ĠìĹ¬ê¸°": 131180,
  "ANC": 26175,
  "jur": 86877,
  "]*)": 94601,
  "/videos": 72945,
  "çļĦä¼Łå¤§": 111784,
  "ìľ¼ë©´": 89940,
  ".learn": 76128,
  "(Message": 29359,
  "Ġapl": 52920,
  "ĠAnthem": 89132,
  "ĠBab": 25369,
  "ĠGOT": 79909,
  "},Ċ": 1583,
  "×ķ×©×¨": 127926,
  "çĮĽçĥĪ": 116672,
  "ĉ": 197,
  "ĠPatri": 22999,
  "innamon": 39335,
  "ĠPalin": 77321,
  "à¹ģà¸Ķà¸Ļ": 135591,
  "â¬ĩ": 145200,
  "æĸĲ": 112251,
  "âĭ±": 146662,
  "Ġfollowed": 8110,
  "ç¦ģæ¯Ĵ": 114922,
  "ccording": 6641,
  "ĉio": 53112,
  "Ġà¸¡à¸²": 129739,
  "beschÃ¤ftig": 143731,
  "ä¸Ńæŀ¢": 116124,
  "Ġremains": 8458,
  "åĨħçļĦ": 102595,
  "Ġleveraging": 76482,
  "ĠFour": 13322,
  "portal": 37953,
  "ĠÐ¸ÑģÑĤÐ¾ÑĢ": 127927,
  "çĥĤ": 102581,
  "Ġadvert": 7690,
  "_lm": 90004,
  ".Autowired": 19160,
  "Ġubic": 62774,
  "å¸¦æĿ¥äºĨ": 104923,
  "ĠOK": 10402,
  "Present": 21195,
  "ç¼ĸ": 30868,
  "Ġwaited": 29215,
  "%timeout": 44046,
  "()]);Ċ": 57887,
  "Ð°ÑĤÑĮÑģÑı": 97681,
  "_BIG": 62743,
  "Ġ/**čĊ": 10595,
  "Pwd": 54357,
  "Ġfid": 32104,
  "âĶī": 148610,
  "ĠghÃ©": 136639,
  "Ñł": 149500,
  "ĠÑĥÑģÐ¿ÐµÑĪÐ½Ð¾": 142982,
  "åİĨåı²æĤłä¹ħ": 116498,
  "ÙĬØ©": 73441,
  "asl": 75366,
  "_modified": 37749,
  "Ġaffordability": 77910,
  "Ġaup": 97444,
  "irts": 19666,
  "Ġcitations": 51846,
  "åľ¨æ·±åľ³": 111522,
  "Stars": 61028,
  "Rob": 14465,
  ".values": 10656,
  "Ġtháº§y": 135560,
  "Ġcompose": 30335,
  "ĉengine": 80118,
  "å¿ħå®ļ": 107523,
  "(null": 4967,
  "èĲ§": 104608,
  "ĠíĬ": 127819,
  "ãĤ¥": 141525,
  "ĠCalls": 40127,
  "ï¸ķ": 149862,
  "ĠSDK": 26623,
  "Ð¼Ð¾Ð½": 133919,
  "ĠPolitical": 30497,
  "âĻĨ": 149676,
  "ioneer": 55398,
  "é«ĺçŃīæķĻèĤ²": 109647,
  "Ġchá»ĵng": 130627,
  "çļ": 9260,
  ".gg": 77679,
  "ĠDelicious": 84688,
  "ĠsetImage": 39962,
  "ĠCoff": 75133,
  "èĺĳèıĩ": 114231,
  "ĠHector": 88040,
  "ĠÐ´Ð¸Ð·": 135385,
  "ðĿĲĵ": 146914,
  "ëĭĪ": 83036,
  "ìº£": 145400,
  "Ġdirty": 18595,
  "Ġ*\\": 87787,
  "ðĲĮ¹": 151248,
  "ĠBarack": 23539,
  "Leaders": 92724,
  "textAlign": 81175,
  "éĢįéģ¥": 115820,
  "ãĤĴãģĹãģ¦": 130403,
  "Ġscraper": 88034,
  "à¸ļà¸²à¸¥": 127543,
  "Ġappointment": 17635,
  "ĠGANG": 96477,
  "ë¹ħ": 144500,
  "Ġpage": 2150,
  "ðŁĺķ": 145491,
  "/Documents": 54730,
  "Ġmeaningless": 55926,
  "æĭ©": 103123,
  "Ġseconds": 6486,
  "ObjectContext": 60504,
  "çĥĪå£«": 107393,
  "(document": 15290,
  "Elect": 29331,
  "ĠAnnual": 24947,
  ".BUTTON": 85611,
  "æ°§æ°Ķ": 115893,
  "ãģ¾ãģļ": 127044,
  "OLUME": 42794,
  "Ġyoutube": 27178,
  "ç¾Ķ": 119390,
  "çļĦæĢ§æł¼": 109483,
  "çªĥ": 103333,
  "Ġsocieties": 33675,
  "ë¹ĦìĬ¤": 126981,
  "ĠIndigenous": 46003,
  "committee": 56785,
  "äºīè®º": 113350,
  "prepend": 55906,
  "_TREE": 46691,
  "ĉb": 2233,
  "_cast": 5303,
  "åĴ¯": 110789,
  "tas": 47542,
  "éĺĢ": 102860,
  "ensions": 4664,
  "coe": 72772,
  "Ġifdef": 68971,
  "ĠScreening": 69089,
  "à½ĵ": 149543,
  "Ġ×Ĳ×Ļ": 128303,
  "ation": 367,
  "REW": 93152,
  "âĩĿ": 147886,
  "Ġdavran": 142801,
  "ĠdÃ³lares": 139043,
  "ockey": 17887,
  "ĠAntique": 70070,
  "Ġembodies": 94022,
  "Ġ....": 21903,
  "_exempt": 95736,
  "Ġcatalogue": 48539,
  "_schema": 25371,
  "<i": 21897,
  "åĵĪåĵĪ": 100323,
  "ĠCSL": 71656,
  "å¶Ĥ": 121435,
  "Ġraid": 24797,
  "Ġofs": 58061,
  "çŃīæ´»åĬ¨": 110561,
  "ĉprintk": 36534,
  "(xs": 53322,
  "åĽ´è§Ĥ": 112931,
  "ĠÐ¾Ð±Ñĭ": 135925,
  "Ġtestament": 60200,
  "Ġapplying": 18950,
  "_cre": 92862,
  "_Err": 93623,
  "Ġdaddy": 56542,
  "rat": 17606,
  "compiler": 33620,
  ".algorithm": 79984,
  "ç´": 26771,
  "altung": 61806,
  "ĉlog": 6725,
  "Ġì§Ħ": 126616,
  "èįĦ": 122422,
  "ØªÙģØ§ØµÙĬÙĦ": 133018,
  "ç½ĳæ¸¸": 103418,
  "à¸Ķà¸²à¸§à¸Ļà¹Į": 141287,
  "×ŀ×¡×¤×¨": 132943,
  "Ġscrewed": 56345,
  "Ġdisse": 32900,
  "Storm": 34291,
  "corr": 59277,
  "ĠFarms": 67021,
  ".Actions": 72044,
  ".Cursor": 29929,
  "=session": 83400,
  "pixel": 29684,
  "åĪĩãĤĮ": 137735,
  "Ġskills": 7361,
  "ĠNight": 12826,
  "_episode": 72224,
  "mount": 16557,
  "HttpResponse": 43342,
  "åĩ¡æĺ¯": 109940,
  "çŀ": 99240,
  "ï¼ĮãĢĬ": 91111,
  "_counter": 15730,
  "ĠTweets": 77701,
  "Ġtussen": 88722,
  ".un": 6307,
  "åĪĽæĦı": 102343,
  "×§×©×¨": 132453,
  "CompanyName": 62539,
  "Ġtreasure": 31626,
  "ĠyaÅŁam": 131750,
  "sÃ£o": 128791,
  "Ġyup": 75446,
  "ĠICommand": 49966,
  "Ġfizz": 86979,
  "Ġholding": 9963,
  "ï¾Ī": 144993,
  "áĹ¨": 147778,
  "ĠÐ¼ÐµÐ¶Ð´Ñĥ": 130724,
  "Ġolder": 9014,
  "ðŁĶĤ": 151401,
  "ĠPress": 8445,
  "Ġcross": 5312,
  "rand": 11335,
  "ĠLud": 45170,
  ".leadingAnchor": 84845,
  "à¸ģà¸£à¸°à¸ķà¸¸à¹īà¸Ļ": 143676,
  "Ð»Ð¾Ð½": 135428,
  "æĶ¹åĬ¨": 116565,
  "Ġagosto": 82189,
  "Ġstabil": 26184,
  ".Design": 51872,
  "omes": 20347,
  "veral": 17539,
  "Ġbuds": 67443,
  "_Parameter": 84458,
  "áĢĴ": 148416,
  "Mock": 11571,
  "æĹ¢è¦ģ": 110738,
  "Ġexplic": 55269,
  "urch": 2574,
  "âĤĤ": 31807,
  "Ø£Ø®Ø°": 131248,
  "Ġworldly": 96606,
  "_person": 23417,
  "Ġeducation": 6731,
  "âĢ´": 151621,
  "åİ»æİī": 115600,
  "Ġmorb": 92044,
  "TableCell": 18426,
  "ĠÑģÐ¿Ð¾ÑģÐ¾Ð±": 129187,
  "ĠíĺĦ": 141526,
  "æ£Ģæµĭ": 101978,
  "Ġprincess": 39588,
  "âļĻ": 146635,
  "Floating": 85652,
  "âĶ·": 148824,
  "Ġmetaphor": 45350,
  "_ram": 62124,
  "$search": 77977,
  "Ġamigo": 70211,
  "\"];čĊ": 32314,
  "Ġposture": 47278,
  "åīįç½®": 115489,
  "×ŀ×Ļ×ª×Ļ": 127807,
  ".trip": 93776,
  "AppDelegate": 46570,
  "çĭį": 119929,
  "Ġgoede": 98560,
  "Ġ\"'\";Ċ": 46873,
  "Ġinv": 1529,
  "\"Why": 76855,
  "ĠCostco": 80295,
  "çĽ´è¨Ģ": 113389,
  "Ġemptied": 93872,
  "ĠčĊĠčĊ": 90440,
  "ç¿»": 100712,
  "lam": 23771,
  "ĠFCC": 37576,
  "è¡ĮæĶ¿å¤Ħç½ļ": 110477,
  "hoot": 90321,
  "äºĮæīĭ": 101714,
  "ĠdavranÄ±ÅŁ": 142802,
  "()));": 76122,
  "ÙĬØªÙĩØ§": 133624,
  "å¦ĩèģĶ": 113181,
  "/contentassist": 93126,
  "enerating": 93107,
  "Æ·": 146531,
  "Ġbedtime": 88507,
  "Ġconnection": 3633,
  "ãĤ®ãĥ£": 140301,
  "cnt": 15853,
  "erce": 25641,
  "Ġlegalized": 76992,
  "ãĤĤãģ®ãģĮ": 134265,
  "-sm": 4668,
  "ĠìĿ´ê²ĥìĿ´": 143419,
  "ØŃØ¬Ø±": 136007,
  "ĠDataGridViewCellStyle": 75263,
  "ëŁ": 46800,
  "å¥³å£«": 104308,
  "Ġroutines": 29497,
  "Ġwelcomes": 56258,
  "à½Ľ": 149237,
  "ĠRenderer": 41367,
  "?}\",": 52652,
  "Ġmodifier": 22739,
  "ĠmÃ³c": 140703,
  "Ġresearchers": 11811,
  ".Right": 17565,
  "ìŀĪ": 127284,
  "ĠConnector": 54814,
  "Ġrico": 93598,
  "Ġ(âĢľ": 26087,
  "-year": 4666,
  "aways": 39590,
  ")o": 88463,
  "ï¼ī": 7552,
  "ClassNotFoundException": 61070,
  "'])[": 67701,
  "ĠATH": 87089,
  "ĠIsland": 10720,
  "ToolBar": 54166,
  "éļ¾": 99349,
  "ïº±": 145728,
  "æļĳ": 101722,
  "ØªØ¹Ø¨ÙĬØ±": 138784,
  "å°±è¯»": 111606,
  "Ġdiscount": 11089,
  "_spi": 44920,
  "Ġsmoking": 19578,
  "Ġhh": 37914,
  ".sess": 86075,
  "ĉand": 52477,
  "ĠConstruction": 24026,
  "ìµ¥": 151054,
  "ĠMaintenance": 38206,
  "ĉaccount": 86866,
  "Ġlaughing": 31581,
  "è¿ĳä¸¤å¹´": 112040,
  "ãĥĹãĥ¬ãĥ¼": 140705,
  "returns": 4216,
  "Ð°Ð»": 15952,
  "èħ¾è®¯": 104497,
  "ÐºÐ»Ð°Ð´ÑĭÐ²Ð°": 138509,
  "ĠgetApp": 76382,
  "-wsj": 28133,
  "Ġgenuine": 22011,
  "Ġabb": 29095,
  ".vertices": 22470,
  "à¸Ħà¸Ńà¸¡à¸ŀà¸´à¸§": 137754,
  "keley": 27299,
  "Ġsports": 9833,
  "Backdrop": 89938,
  "ĉswap": 71755,
  "Ġ×ł×Ķ×ĵ×¨": 140921,
  ".FirstOrDefault": 29620,
  "ØŃØ¯ÙĬØ«": 130825,
  "(styles": 61772,
  "æģ«": 120240,
  "æŀľæłĳ": 115410,
  "è½¦ä¼ģ": 111532,
  "substr": 28614,
  "ius": 9156,
  "Ġtháº»": 137118,
  "×Ĺ×©×ĳ×ķ": 135439,
  "à¸ªà¸¡à¸±à¸Ħà¸£à¸ªà¸¡à¸²à¸Ĭà¸´à¸ģ": 137405,
  "ÑĭÐ¼Ð¸": 129129,
  "ĠEthan": 62164,
  "Ġlonging": 78322,
  "brit": 31314,
  "Ġreligion": 13587,
  "ìĨ¥": 145812,
  "ffen": 25651,
  "photo": 11556,
  "ĠInquiry": 65702,
  "ĠZero": 18306,
  "å¤§æ¥¼": 108309,
  "æ³¨éĶĢ": 111407,
  "presentation": 43925,
  "Ġ+Ċ": 3610,
  "ĠAcad": 12364,
  "ĠsÃ³ng": 136847,
  "âĹ¡": 145423,
  "_sup": 23723,
  "ä»İæĿ¥æ²¡æľī": 108285,
  "Ġregions": 13604,
  "osex": 19791,
  "Ġstranger": 33958,
  ".modelo": 86604,
  "ç®¡ç½ĳ": 110380,
  "ogh": 63936,
  "Ġchildish": 93171,
  "åĽłä¸ºä»ĸ": 106773,
  "HTML": 5835,
  "Ġclass": 536,
  "_like": 25535,
  "stellen": 58158,
  "DB": 3506,
  "Ġdrastic": 59783,
  "ÙĤØ·": 124687,
  "ëŀĻ": 144195,
  "ĠWimbledon": 90157,
  "èĢĮåľ¨": 104746,
  ".ManyToMany": 70958,
  "Setting": 15400,
  "PLIED": 11865,
  "Ġrefinery": 93634,
  "ìªĺ": 146950,
  "èĦ±èĲ½": 113310,
  "(Arg": 88102,
  "_activity": 30026,
  "Ġinjury": 10895,
  "first": 3896,
  "CommandLine": 71885,
  "èĢĮæĿ¥": 105758,
  "ĠAirways": 69402,
  "Ġexploiting": 70601,
  "ĠRomans": 48717,
  "Ġcoffee": 10799,
  "ìŀĺ": 144505,
  "Ġores": 75058,
  "ÑģÑĤÐ²ÐµÐ½Ð½Ð¾": 127130,
  "åĨľè´¸å¸Ĥåľº": 116796,
  "Ġgirlfriends": 84512,
  "ê´Ģ": 124780,
  "à¹Ģà¸Ĺà¹īà¸²": 127984,
  "äº¬": 46553,
  "_X": 6859,
  "ĠcellForRowAt": 82655,
  "Ġprivileged": 46261,
  "Ġcups": 25374,
  "ãģįãģ¡": 139018,
  "å¯ĤéĿĻ": 118455,
  "comments": 14727,
  "ãģ®ãĤĪãģĨãģª": 130132,
  "äº²åĪĩ": 109010,
  "ĠpageSize": 22635,
  "ĠÃľye": 137160,
  "åĳ¼åĲ¸éģĵ": 115610,
  "(Customer": 71412,
  "VBoxLayout": 57820,
  "ĠÐ¸Ð·Ð´ÐµÐ»Ð¸Ñı": 143881,
  "æ¼«æŃ¥": 114208,
  "icter": 79639,
  "your": 21732,
  "å±ĭ": 100436,
  "ä¸ºæŃ¢": 101784,
  "åĽ½äºº": 111170,
  "Ġ|/": 97845,
  "ĠCentOS": 95513,
  "owego": 77280,
  "<Audio": 65406,
  ".keyboard": 53570,
  "Ġconcentr": 17137,
  "ogen": 11706,
  "'||": 71257,
  "ĠÑģÐµÐ·": 135070,
  "ĠPound": 78252,
  "Anthony": 68998,
  "æĿİæŁĲ": 112325,
  "-national": 74529,
  "ĠìĤŃìłľ": 76592,
  "ĠcancellationToken": 33133,
  ".ht": 21081,
  "é¡º": 99683,
  "False": 4049,
  "_submenu": 96733,
  "OTES": 43905,
  "æ²±": 119956,
  "è°¢": 99757,
  "Ġblends": 57843,
  "Ġstrpos": 43468,
  "_RESPONSE": 35901,
  "êĩ": 128225,
  "æĩµ": 116713,
  "_listen": 79286,
  "_power": 20421,
  "ĠApplied": 42508,
  "orest": 41419,
  "çĪŃ": 103433,
  "é½ĩ": 123789,
  "ĠSuc": 67890,
  "å¯ĴåĨ·": 109646,
  "dense": 80286,
  "Away": 78284,
  "å®¶ãģ®": 132918,
  "upplier": 71691,
  "ĠnewVal": 72328,
  "EE": 7099,
  "unread": 96818,
  "Ġ!\"": 96086,
  "Ð´Ð¾Ð²": 132584,
  "ÑĤÐµÐ»ÑĮÐ½ÑĭÐ¹": 136309,
  "åµ": 99444,
  "âĻĿ": 149055,
  "Ġverd": 25658,
  "ĠbÃ©nÃ©fic": 141360,
  "ĠmayorÃŃa": 85316,
  "éĹľä¿Ĥ": 107287,
  "ĠÐºÐ¾Ð¼Ð¿Ð°Ð½Ð¸Ñı": 134979,
  "×¨×ķ×ª": 128828,
  "ï¤³": 148555,
  "ĠsearchText": 72508,
  "é¥¼": 101579,
  "æ·Ĩ": 103890,
  "ag": 351,
  "ä¸ĸä¸Ĭ": 110759,
  "_DISPATCH": 88674,
  "Ġplaya": 97440,
  "éľĩæħĳ": 118541,
  "ä¸ªåĽ½å®¶": 108133,
  "(calc": 91630,
  ".Resize": 77707,
  "Ġmurders": 41986,
  "decoded": 62913,
  "_ROW": 38889,
  "ãģĿãģĨãģ§ãģĻ": 129285,
  "ĠÐ¿Ð¾": 17686,
  "-shift": 89943,
  "ç±¼": 120214,
  "ĠWhatever": 32639,
  "Ġwindy": 92921,
  "Ġmonumental": 77756,
  "~": 93,
  "ucumber": 40912,
  "Ġsoaked": 68875,
  "æ¸ħåįķ": 105713,
  "Ros": 74020,
  "ç¼Ĺ": 121093,
  "Proof": 31076,
  "ðŁĴº": 151396,
  "+S": 87953,
  "è´§è¿Ĳ": 106058,
  "ĠMacDonald": 80873,
  ".connected": 61650,
  "Files": 10809,
  "è®¨åİĮ": 108749,
  "Ø¯Ø§": 124405,
  ".Def": 49947,
  "Ġreverted": 93593,
  "ÑĢÐµÐ¼": 49581,
  "Ġê²ĥëıĦ": 137638,
  "Ġtert": 97114,
  "icates": 24821,
  "ðŁĳª": 146565,
  "ÐºÐ°Ð½": 131134,
  "CartItem": 97975,
  "_requested": 72709,
  "Outer": 51322,
  "ä¸ļåĨħäººå£«": 107455,
  "icester": 50677,
  "!!.": 24426,
  "Ġcontracted": 49968,
  "Ġwidest": 80239,
  "Ġharness": 32408,
  "_roll": 57578,
  "ĠPope": 29360,
  "esda": 68626,
  "íĩ´": 141008,
  "cond": 1297,
  "çĭĪ": 119319,
  "stringLiteral": 59305,
  ")<=": 65612,
  ".CONT": 44716,
  "è°´è´£": 117681,
  "è°¢éŁµ": 118573,
  ".GenerationType": 72372,
  "à¹Ģà¸¨": 125744,
  "æĮŁ": 117823,
  "olleyError": 93384,
  "ĠAuto": 8979,
  "Ġaccountant": 74921,
  "è¨»åĨĬ": 101766,
  "_Search": 65913,
  ".depart": 92408,
  "tÃ¡": 128786,
  "InstanceId": 65918,
  "ĠÐ¸ÑģÐ¿Ð¾Ð»ÑĮÐ·Ð¾Ð²Ð°ÑĤÑĮ": 132805,
  "ĠEh": 60551,
  "ä´ĵ": 122440,
  "products": 10144,
  "åĬ©åĬĽ": 104236,
  ".req": 48369,
  "Val": 2208,
  "Ġnhiá»ģu": 128271,
  "Ġbajo": 62412,
  "_LED": 37604,
  "Ġweakened": 57664,
  "ãģĻãĤĭãģ¨": 128864,
  "Ġven": 11208,
  "Ġaugment": 48706,
  "ĉpublic": 1219,
  "æľĿå»·": 111827,
  "Ġclicking": 18458,
  "_click": 18631,
  "_Get": 13614,
  "âĢķâĢķ": 142733,
  "_if": 11119,
  "Ġfills": 40587,
  "Ġprolong": 32382,
  "\"\"\"ĊĊ": 15075,
  "å¤±ä¿¡": 113114,
  "getResult": 56656,
  "ĠAlex": 8515,
  "Ġfrightened": 59078,
  "ëĭµ": 132760,
  "æľĿçĿĢ": 108116,
  "ÃľN": 134803,
  "äººéĢł": 112421,
  "_working": 81101,
  "ê¹ħ": 144888,
  "ØªØ±Ùĥ": 125650,
  "Memcpy": 45152,
  "ç«ĭ": 79095,
  "ĠstandardUserDefaults": 55989,
  "Ġofstream": 75393,
  "aptop": 16386,
  ".comments": 45074,
  "èĢģæĹ§å°ıåĮº": 117342,
  "ïŃĿ": 151164,
  "ĠArab": 10756,
  "ìķľ": 148432,
  "ocial": 2705,
  "Ġlime": 41719,
  "åıĪå¥½": 112387,
  "ç§įæĹı": 112187,
  "ĠRuss": 4507,
  "Ġregrets": 67925,
  "Ġinteger": 7546,
  "OrderBy": 34605,
  "ëŃĺ": 144395,
  "åĢĺ": 103549,
  "_nt": 38945,
  "Ġcount": 1760,
  "Ġyacc": 47364,
  "Ġvs": 6165,
  "::~": 14252,
  "Ġthink": 1744,
  "è®©çĶ¨æĪ·": 115987,
  "å¦¹åŃĲ": 109455,
  "ãĤĤãģ¡ãĤį": 127326,
  "Ġclubhouse": 93433,
  "atem": 37246,
  "à¸ĭà¸²": 130098,
  "ProductName": 71103,
  "Ġrelationship": 5025,
  "[]": 1294,
  "_neurons": 96156,
  "ĠUIT": 19923,
  "Ġrefurbished": 82315,
  "(()=>{Ċ": 65901,
  "å¹²": 99251,
  "ĠÙĦØªØŃÙĤÙĬÙĤ": 143012,
  "å®ŀä¹łçĶŁ": 115092,
  "ÃŃc": 29415,
  "=yes": 59565,
  "\\Context": 96526,
  "ĠqueryInterface": 94915,
  "Ġdimensions": 15336,
  "å·²ä¹ħ": 117189,
  ".adj": 78851,
  "ðŁħĲ": 151370,
  "realm": 69897,
  "/U": 62010,
  "å½ĵåģļ": 112083,
  "å¥łå®ļäºĨ": 108438,
  "Ġcara": 46934,
  "Ð»ÑİÐ´": 134703,
  "ì£Ĺ": 146949,
  "æīĢæīĢ": 117088,
  "Opt": 21367,
  "lify": 55500,
  "èªĵè¨Ģ": 118812,
  "Ġ×ĳ×ľ×ĳ×ĵ": 130662,
  "çĦĬ": 103017,
  "ĠURL": 5548,
  "íĽ¼": 144314,
  "David": 22286,
  "Plate": 64709,
  "ĠBell": 17884,
  "ĠÑģÐ¾ÑħÑĢÐ°Ð½": 92681,
  "æľ¬å½ĵ": 129790,
  "stacle": 43598,
  "Ġdimensional": 55887,
  "Ġthermo": 96147,
  "Ġ×Ķ×ŀ×§×ķ×¨×Ļ": 143553,
  "_HARD": 78149,
  "Ġ_.": 13194,
  "Ġscept": 66351,
  "Ġinvitation": 28688,
  "ãģªãģıãģªãĤĭ": 138885,
  "è¯ŀçĶŁ": 105644,
  "ls": 4730,
  "(listener": 40610,
  "ĠHaven": 41614,
  "íĤ¹": 144120,
  "Ġthuyá»ģn": 143897,
  "×¢×Ļ×ł×Ļ": 131758,
  "rpc": 29414,
  "åĽ½éĻħåĲĪä½ľ": 116151,
  "Ġobserving": 44971,
  "ĠHeal": 81030,
  "å¸Ĥåľºä»½é¢Ŀ": 108577,
  "ãģķãģ¦": 135575,
  "ĠComplete": 18608,
  "ĠIowa": 20700,
  "ĠBefore": 13235,
  "Ġlandmarks": 59924,
  "à¸¡à¸±à¸Ļ": 125454,
  "Ïħ": 53456,
  "ãģ¦ãģįãģŁ": 132335,
  "×¨×Ķ": 128528,
  "leg": 1937,
  "chalk": 86388,
  "_repr": 68535,
  "ĠQuÃ©": 65603,
  "Ġopted": 40767,
  "çŁŃ": 99534,
  "ä½Ļé¢Ŀ": 107783,
  "çº«": 119310,
  "Ġtrio": 33962,
  "ĠMSM": 67491,
  "ĠQual": 19572,
  "-vs": 97874,
  "ÅĤow": 128077,
  "_sampler": 72812,
  "upa": 45831,
  "å·²ç»ıè¶ħè¿ĩ": 118547,
  "åĸĳ": 120937,
  "è®": 10203,
  "Ġmetres": 36256,
  "UIStoryboardSegue": 89450,
  "à¹Ģà¸Ľà¸¥à¸µà¹Īà¸¢": 126740,
  "ĠÑħÐ¾ÑĤÑı": 132957,
  "ìĦ£": 145433,
  "æĿľç»Ŀ": 110516,
  "Vol": 36361,
  "åĹ½": 103299,
  "è¿ŀç»Ń": 104005,
  ".Imp": 85835,
  "çĹħåıĺ": 112140,
  "ç¾İåªĴ": 118088,
  "Ġfully": 7225,
  "(expression": 48330,
  "Ġfountain": 56613,
  "ĠLee": 12066,
  ".param": 6634,
  "ĠWizard": 38387,
  "ĠSignature": 32232,
  "Ġobedience": 66094,
  "ÅĨ": 145910,
  "IFE": 39677,
  "GrÃ¼n": 136589,
  "Terminate": 62519,
  "ungkin": 97934,
  "ä¿¡è®¿": 108914,
  "ĉBufferedReader": 76936,
  "ĠCascade": 56770,
  "Ġ),ĊĊ": 36984,
  "Run": 6727,
  "Ġ×©×ŀ×ķ×¨×ķ×ª": 131739,
  "Ġmetadata": 11160,
  "ĉTokenName": 39629,
  "ä¼§": 119623,
  "rdf": 77998,
  "ä¿®æĶ¹": 25177,
  "ĠÙĤÙİØ§ÙĦ": 142086,
  "éĻĦè¿ĳçļĦ": 107922,
  "âļ¾": 147408,
  "ĠuserDetails": 88103,
  "naz": 87296,
  "ĠÐĸ": 129219,
  "Ġmeaningful": 22414,
  "ä¸½": 99686,
  "Span": 12485,
  "å¡¾": 121484,
  "çĳŁ": 107318,
  "pais": 87098,
  "ĠChe": 8436,
  "Ð±Ð°": 128940,
  "ende": 10938,
  "ä¸Ģä¸ªéĹ®é¢ĺ": 111720,
  "Ġgris": 85830,
  "ãģªãģĭ": 125944,
  "Modifiers": 66937,
  "Ġphenotype": 81323,
  "ĠGentle": 73469,
  "ĠinvestigaciÃ³n": 97524,
  "Ġ<?=": 17875,
  "Ġìĸ¼": 138665,
  "åĭ¢": 107686,
  "trx": 72461,
  "Ġposterior": 44900,
  "ĠVulkan": 85864,
  "ĠCrÃ©": 135893,
  "Ġnorms": 39751,
  "ĠlÃ¤ng": 96976,
  "Ã¤cht": 135573,
  "Ġalum": 32960,
  "ï¤²": 151120,
  "<Car": 92337,
  "å¤§æµ·": 107910,
  "Ġmpg": 82454,
  "Ã¡ln": 90165,
  "Ġdomest": 73422,
  "ot": 354,
  "Ġguarded": 63163,
  "Ġvine": 28950,
  "ĶåĽŀ": 25011,
  ".bytes": 42697,
  "ĠØ§ÙĦÙħØŃÙĦÙĬØ©": 137387,
  "(schedule": 87712,
  "=\"(": 78239,
  ".hasClass": 51975,
  "æĪĳæĥ³": 104100,
  "ĠÙĪØ§ÙĦØ¹": 132525,
  "Ġpertaining": 45931,
  "Ġpickups": 92038,
  "engeance": 55379,
  "Ġ×ľ×©×Ŀ": 136688,
  "uncan": 37466,
  "é¥¿": 103048,
  "}'\",": 93708,
  "Ġaccompl": 13089,
  "æ»ĳéĽª": 108892,
  "(register": 68166,
  "ê¶ģ": 139604,
  "ĠGift": 22062,
  "Ġspecies": 9419,
  ",parent": 90616,
  "ĠLSU": 64412,
  "delegate": 28227,
  "_Dep": 90680,
  "ledon": 82457,
  "(wallet": 95586,
  "ä¸įä¾¿": 108423,
  "-symbol": 87322,
  "packing": 95124,
  "çı½": 122570,
  "fabs": 50147,
  "Ġthought": 3381,
  "æ²³åĮĹ": 102255,
  "Ä±lma": 132101,
  "à¹Īà¸§à¸Ļ": 124659,
  "Illegal": 33713,
  "Ġfauna": 98914,
  "ä¸ĢèĤ¡": 105498,
  "Timer": 10105,
  "Ëµ": 148955,
  "-mini": 67354,
  "querque": 67608,
  "Applied": 75856,
  "âĦ³": 148596,
  "ðĿĶ·": 151325,
  "Ġkeynote": 70905,
  "Mexico": 68831,
  "ä¸Ģå¹´": 100695,
  "Lady": 75602,
  "Ġ<": 366,
  "Ġpensar": 93051,
  "isk": 3187,
  "/bin": 8749,
  "Ç£": 148946,
  ".cljs": 40779,
  "ĠãĥĪãĥ©ãĥĥãĤ¯ãĥĲãĥĥãĤ¯": 143985,
  "Å·": 147197,
  "Ġpainstaking": 97613,
  "×§×ĳ×¢": 131148,
  "ðŁ¥Ĳ": 147028,
  "èį¯": 99471,
  "Ġrestroom": 88809,
  "Ġaddons": 89145,
  "çľĬ": 120104,
  "Modes": 70035,
  "ë³µ": 97834,
  "Ġgore": 90432,
  "GOR": 61787,
  "âŀł": 145626,
  "_____": 80517,
  "ãĤĮãģ¾ãģĻ": 138356,
  "àº£": 148225,
  "Ġhairst": 55284,
  "Ġrouters": 59175,
  "å¤©ä¸Ĭ": 110154,
  "ĠPackage": 16906,
  "Ġ'::": 97752,
  ".getById": 72075,
  "ĠUnsupported": 33081,
  "ĠíĻľ": 140968,
  "Ġgrape": 51152,
  "Ġdealer": 23321,
  "Ġarchived": 51993,
  ".toastr": 87351,
  "Ġ'')": 13453,
  "Enumer": 5882,
  "ï§¡": 145344,
  "_department": 71886,
  "ĠSov": 17867,
  "×©×Ļ×Ŀ": 124432,
  "LR": 20117,
  "æľīåħ³éĥ¨éĹ¨": 105467,
  "Ġoferta": 84220,
  "(cl": 9849,
  "Ġintellectually": 93291,
  "Ġfiance": 94188,
  "ÙħØ´": 124985,
  "ËĽ": 145262,
  "]]": 5053,
  "Ġbisa": 39988,
  "Ġ'-')": 69163,
  "ï°": 124001,
  "ĠgÃ¶rÃ¼l": 131217,
  "ĠMarseille": 87693,
  "éķĳ": 103557,
  "Ġakin": 51907,
  "ðŁĮį": 145691,
  "Ġ×¨×Ĺ×ĳ": 134085,
  ".or": 24282,
  "çĭłçĭł": 112902,
  "à¸Ŀà¹īà¸²": 138909,
  "_dispatcher": 92189,
  "chantment": 68889,
  "è®¤åĲĮ": 106139,
  "WB": 52868,
  "çĳ¾": 115216,
  "ĠCombine": 46812,
  "(mem": 39908,
  "orth": 2364,
  "Ġrecordings": 37040,
  "ĠAccording": 10548,
  "\"\\": 11934,
  "èİĽ": 120037,
  "è¡£": 99741,
  "Ġsá»©": 138624,
  "ĠRet": 10392,
  "ÙĬØ¯Ø©": 130462,
  "çİĻ": 119655,
  "æĹĲ": 123079,
  "Ð½Ð°Ñĩ": 30181,
  "assist": 50966,
  "ĠITV": 93355,
  "ï½ı": 144116,
  "èĩªçĦ¶çģ¾å®³": 117153,
  "pga": 74669,
  "ëĶ´": 144760,
  "xdc": 48361,
  "æĳĶ": 103036,
  ".exe": 19399,
  "Ġmural": 73373,
  "éļĶçĿĢ": 117806,
  "ë®´": 146214,
  "Ġnecesita": 93966,
  "isos": 69304,
  "ĠDeployment": 66292,
  "ĠDelay": 39793,
  "Ġhandled": 17608,
  "(tmp": 10368,
  "|RF": 98578,
  "åĮ»åĬ¡äººåĳĺ": 115575,
  "Ġcorrelations": 68816,
  "éĩįè¦ģãģª": 138661,
  "AZY": 73552,
  "æľ¬èº«å°±": 114988,
  "om": 316,
  "åĮĹäº¬å¤§åŃ¦": 109885,
  ".coords": 43994,
  "Bracket": 58500,
  "qrt": 8140,
  "Ġë¶": 62740,
  "ĉnodes": 79756,
  "çĵ¶åŃĲ": 118579,
  "ðĿĴĮ": 149149,
  "ðŁĺĵ": 145740,
  "priority": 23582,
  "History": 13424,
  "uth": 940,
  "Ġcriticised": 59379,
  "))^": 96859,
  "Ġ{?}": 94469,
  "æ¯įå©´": 110107,
  "ĠZimbabwe": 51220,
  "ï¿¤": 147958,
  "çĺŁ": 119476,
  "ĠCharacters": 44516,
  "ĉerr": 9859,
  "çĳľä¼½": 111630,
  "åī¯ä¼ļéķ¿": 115399,
  "×ķ×¦×¢": 128118,
  "ulario": 32330,
  "æ³°å·ŀ": 117053,
  "à¸¡à¸²à¸ķà¸£": 136188,
  "<Real": 64829,
  "é¹¯": 123699,
  "Ġinstitutional": 32132,
  "Ġsubstant": 10913,
  "apot": 89901,
  "ì³¤": 144172,
  "Ġthief": 57735,
  "ð¦ĺ": 149963,
  "ĠPicker": 85383,
  "Computed": 56474,
  "ĠJensen": 64009,
  "valor": 24782,
  "ĠTÃ¬m": 137328,
  "ĠÙħØ¹": 126196,
  "<li": 8812,
  "äº§çī©": 107795,
  "Ġcommend": 73112,
  "passes": 94323,
  "Ø£ØªÙĬ": 127746,
  "ĠOften": 34916,
  "Ġ×¢×¡×§×Ļ": 137910,
  "_encoded": 73069,
  ".visual": 52597,
  "followers": 65866,
  "ä¸īä¸ªæľĪ": 108213,
  "ĠPSI": 88178,
  "ĠAssemblyFileVersion": 98143,
  "Ġexperi": 5747,
  "ists": 1671,
  "Estimated": 72565,
  "Ġencounters": 33906,
  "erer": 90017,
  "Ġtsunami": 71055,
  "geries": 60388,
  "_PROTO": 30265,
  "Ġquaint": 87508,
  "ä¸Ģæŀļ": 111336,
  "Usage": 14783,
  "ĠFried": 30251,
  "Ġ?>": 3370,
  "Hash": 6370,
  "hind": 73938,
  "ĠaddTarget": 49927,
  "Ġclap": 89577,
  "akte": 28815,
  "ĠIndians": 29407,
  "illas": 33244,
  ".AppSettings": 49261,
  "zenia": 35088,
  "ĠMond": 50872,
  "âİľ": 148605,
  "ĠCONTRACT": 17126,
  "modifiable": 84079,
  "Ġefficiencies": 91026,
  "ĠTráº§n": 131479,
  "å¦Ĥæľī": 102786,
  "Prob": 36980,
  "pire": 22922,
  "_FAR": 87961,
  "×ŀ×¡×¢×ĵ": 140106,
  "curity": 3666,
  "ĠÐ½Ð°Ð³": 143960,
  "intval": 57602,
  "åįłæľī": 103327,
  "Ġriv": 43129,
  "ëĦ´": 146640,
  "(width": 16425,
  "Ġdbo": 55859,
  "å¾Ģå¾Ģä¼ļ": 113156,
  "TB": 31160,
  "Ġshuttle": 44541,
  "Ġlarge": 3460,
  "ĠCAL": 32907,
  "æ°ĶåĢĻåıĺåĮĸ": 116122,
  "='<": 35695,
  "etur": 31841,
  "ðŁįī": 146929,
  "Ûĥ": 146072,
  "ìĭłì²Ń": 133481,
  ".Rows": 11332,
  "FAST": 59206,
  "ĠChecklist": 94969,
  "ĠÑĤÐ°ÐºÐ¾Ð¹": 131392,
  "=random": 79817,
  "åĵģçīĮçļĦ": 107322,
  "ĠLOWER": 85457,
  "Ġworkshop": 25073,
  "æ³ķå®Ŀ": 115456,
  "äººãģ®": 128946,
  "ĠEditorGUILayout": 52822,
  "Ġabsolut": 63162,
  "Ġvx": 43460,
  "è°¶": 122048,
  "ä»ĭç»įè¯´": 111248,
  "_totals": 96892,
  "ä¼ļéķ¿": 100990,
  "ðŁĲ¢": 147257,
  "Ġnails": 39843,
  "ĠSheriff": 28683,
  "ÙĩÙĲ": 135485,
  "setFlash": 62389,
  "ĠRespons": 32071,
  "ĠLos": 9656,
  "etti": 27937,
  "âĵĿ": 148020,
  "ĠPaypal": 68021,
  "Ġgenotype": 79185,
  "ependency": 40529,
  "Ġembroid": 53578,
  "ĠVenezuelan": 82649,
  "Pu": 76362,
  "Answer": 16141,
  "Ġtransferred": 22409,
  "(AF": 57867,
  "ê¦Ĵ": 147469,
  "ÑĤÑĥÑĢ": 126567,
  "root": 2888,
  "å½Ĵå±ŀäºİ": 115636,
  "Sprites": 74911,
  "æĪĺæĸĹæľº": 116072,
  "BY": 19912,
  "ĠviewType": 53081,
  "ä¾Ľæ°´": 107496,
  "ĠDÃ¼nya": 131635,
  "å¤ĸéĥ¨": 105413,
  "vanized": 67124,
  "_UTILS": 87967,
  "******Ċ": 64071,
  "DownList": 65896,
  "_succ": 70758,
  "_repo": 37784,
  "ê±¸": 135944,
  ".Download": 61204,
  ".guid": 62894,
  "ĠEvan": 43943,
  "á»ĭ": 35928,
  "Ġattentive": 72798,
  "Ġdetective": 44159,
  "ð«Ķ": 101880,
  "iere": 18849,
  "æ£«": 122973,
  "parentNode": 80704,
  "çĳ±": 123290,
  "ĠCrafts": 64941,
  "PLOY": 71824,
  "Ġdiamonds": 48051,
  "Ġtackle": 21403,
  "Ġxmlns": 24967,
  "Quick": 24318,
  "ĠScratch": 79974,
  "êĩĹ": 149720,
  "à¤¨": 60096,
  "uid": 2423,
  "æĹ¥åĲİ": 109864,
  "ano": 5652,
  "rections": 67343,
  "ĠÐ²Ð½": 143472,
  "ç»ıå¼Ģ": 111991,
  "Ġweren": 14716,
  ".sql": 10045,
  ".Domain": 20442,
  "à¸¡à¸«à¸²": 126832,
  "æĳ§æ¯ģ": 113912,
  "Prices": 62718,
  "Ġgeme": 51637,
  "ä¸Ģé¡µ": 90366,
  "erging": 95296,
  "owe": 23733,
  "_previous": 52552,
  "cmp": 7293,
  "ëķ": 124099,
  "_DONE": 42741,
  "Data": 1043,
  "ĠGrund": 47227,
  "Ùĭ": 124376,
  "_CONVERT": 79121,
  "'].'</": 42336,
  "Ġmined": 67668,
  "èĭ§": 122292,
  "ibal": 50529,
  "å²Ĥ": 108558,
  "ðĿĲŁ": 150029,
  ".env": 9265,
  "olume": 4661,
  "Êµ": 149400,
  "Quote": 19466,
  "ĠSpiritual": 62749,
  "ĠMeer": 94716,
  "ĠSubLObject": 79057,
  "Government": 61469,
  "ĠFleet": 43455,
  "Ġmotherboard": 64243,
  "Ġ×Ĳ×Ļ×Ľ×ķ×ª×Ļ": 138439,
  "ÙĬÙĤ": 128473,
  "è¿°": 41932,
  "ĠUPLOAD": 83818,
  "æĹħé¦Ĩ": 113373,
  "Ġ×Ľ×ľ×ľ×Ļ": 134545,
  "ĠAU": 39056,
  "ĠÙĬØ¹ÙĨÙĬ": 132338,
  "éĦĮ": 123076,
  "Ġbeautifully": 31619,
  "çº¢åĮħ": 108052,
  "à¸Ńà¸ļ": 124093,
  "Ġtumult": 84577,
  "ðŁĳģ": 145633,
  "Ġsomewhere": 14696,
  "Ġspouse": 30980,
  "Advance": 95027,
  "ĠGNU": 4253,
  "Behavior": 22753,
  "ÐºÑģÐ¸": 136910,
  "ãĥ¡ãĥ³ãĥĲãĥ¼": 137022,
  "ĠÙħØ¯ÙĬØ±": 132889,
  "IRE": 7466,
  "Ford": 58563,
  "ĠØ§ÙĦØ³Ø§Ø¯": 141395,
  "yu": 40001,
  "ç²īæľ«": 115864,
  "Ġstrand": 41489,
  "_branch": 28031,
  "ÐµÑĪÑĮ": 131260,
  "æį®è¯´": 106619,
  "×¨×ĸ": 133390,
  "à¸ªà¸ĸà¸²à¸Ļà¸Ĺà¸µà¹Ī": 130846,
  "Ġ):ĊĊ": 58418,
  "inha": 43238,
  "inges": 40399,
  "Ġattrs": 16204,
  "Ġfield": 2070,
  "ĠTInt": 71238,
  "ĠsetVisible": 83252,
  "ior": 2462,
  "IMARY": 26020,
  "ïºĤ": 146953,
  "ĠCookie": 24356,
  "Ġprevail": 65728,
  "Ġnop": 65026,
  "_windows": 58220,
  "Ġpinterest": 61016,
  "callable": 95192,
  "_sql": 18063,
  "ĠImports": 66098,
  "ĠIV": 16824,
  "ĠÑģÐ°Ð¹ÑĤÐµ": 131595,
  "ðĿĲ¤": 147715,
  "Ġjadx": 57543,
  "Ġorganism": 46020,
  "ĠStay": 28737,
  "quoted": 63725,
  "ĠBett": 67588,
  "Deserializer": 80097,
  "çº¯åĩĢ": 114020,
  "ç±³": 72261,
  "----------Ċ": 14328,
  "Ð¿ÐµÑĢÐ²": 139770,
  "å®īåħ¨": 99464,
  "åıĸå¾Ĺ": 101094,
  "é«ĺå³°æľŁ": 116844,
  "å¹²åĺĽ": 112102,
  "Ġcommons": 64962,
  "á¸¯": 148591,
  "setChecked": 64945,
  "europÃ¤": 143831,
  "ìĸ»": 136180,
  "ĉpt": 60796,
  "Authorized": 60454,
  "Ġsegundo": 44287,
  "-power": 26526,
  "Ī": 230,
  "Ġimm": 4893,
  "ĠDiesel": 53794,
  "ÉĽ": 145274,
  ")+\"": 27506,
  "(Result": 47383,
  "Ġbiá»ĥu": 129626,
  "à¸ģ": 25200,
  "empo": 22114,
  "Ġ×ŀ×ĵ×Ķ": 142316,
  "Modules": 28201,
  "è§¥": 121267,
  "lene": 34191,
  "æłĩé¢ĺ": 60396,
  "æĭĸæ¬ł": 114850,
  "ĠGoose": 81107,
  "ĠHttpURLConnection": 94327,
  "ðĿķģ": 149992,
  "ãģ§ãģįãģŁ": 134116,
  "Ġcampaigning": 54827,
  "ðĿĺ¢": 148234,
  "æĦ£": 107399,
  "ĠNYC": 33285,
  "ĠTub": 39540,
  "æľ¨è´¨": 115534,
  "æģĭäºº": 115919,
  "Ġeve": 48896,
  "æĭ¿æĿ¥": 113641,
  "çĮ´åŃĲ": 113321,
  "×ŀ×Ĺ": 124348,
  "Ġ{*": 29808,
  "Annual": 80496,
  "ĠMik": 42242,
  "appId": 74829,
  "ĠÐ¼Ð°ÑģÑĤÐµÑĢ": 135904,
  "ĠyAxis": 62578,
  "Sequential": 22046,
  "eliness": 54698,
  "Ġ×©×Ļ×¨×ķ×ª": 127009,
  "Ġnick": 15988,
  "ĠSenior": 19342,
  "ĠJul": 10057,
  "Ġgovernment": 3033,
  "eniable": 78811,
  "ĠCooking": 56310,
  "Ġenvironment": 4573,
  "ĠMinimal": 75112,
  "ç»»": 120836,
  "Ø¥Ø±Ø³Ø§ÙĦ": 142376,
  "æĬĳéĥģ": 103677,
  "Ġchurch": 8817,
  "tz": 37592,
  "Ġsich": 9089,
  "ĠManny": 94155,
  "ĠÐ±Ð¾Ð»ÑĮÑĪÐµ": 129258,
  "(background": 65846,
  "ä§ŀ": 150810,
  "åĴĽ": 119872,
  "á¸ł": 150590,
  "impan": 89888,
  "ilton": 16296,
  "Ġestar": 34257,
  "Ġmuted": 59021,
  "Ġmarketers": 54472,
  "çĽ´åįĩ": 111995,
  "ëıł": 148335,
  "*time": 77053,
  "ĉText": 49635,
  "æīĭèħķ": 114105,
  "æ¤ĵ": 122974,
  "ĠWort": 93504,
  "à¸¥à¸Ńà¸ĩ": 126489,
  "éĽĸçĦ¶": 106053,
  ".isOpen": 65791,
  "Ġdiscredit": 87019,
  "åĪĿå§ĭ": 113188,
  "Ġeinz": 74227,
  "CustomLabel": 78909,
  "Ġ];čĊ": 65383,
  "Ġbelt": 19125,
  "=\"\";čĊ": 67924,
  "êµ¶": 144989,
  "Ġmáº¯t": 128668,
  "åº¦åģĩ": 102953,
  "ĠÐŁÐ¾Ð»ÑĥÑĩ": 88933,
  "_RESOLUTION": 92746,
  ".slot": 69643,
  ".package": 48628,
  "Signal": 26810,
  "æ¼«": 99984,
  "è·¯çĶ±": 116817,
  "èĿ£": 121616,
  "åıĤä¸İèĢħ": 111842,
  "Ġtoys": 23069,
  "ØªÙģØ³ÙĬØ±": 137645,
  "spark": 53782,
  "Ġchiáº¿u": 135714,
  "ä¸įæĺİçĻ½": 109813,
  "(Menu": 34203,
  "Ġpeninsula": 65395,
  "ĠUpdating": 78118,
  "âĺĴ": 148616,
  "ĉF": 12727,
  "Ġtrá»įng": 128550,
  "ì±Ļ": 144483,
  "Ġcurry": 54078,
  "âĳħ": 146481,
  "Ð»Ð¸Ñĩ": 90116,
  "ĠBeng": 25250,
  "æľªå¿ħ": 108303,
  "Ġscouts": 69871,
  "Ġ×ª×ķ": 129440,
  "ĠkapÄ±": 136110,
  "ä¸Ńç§ĭ": 103432,
  "ÐµÐ½Ð¸Ñİ": 130201,
  "çĿĢçľ¼": 103645,
  "ĠMembership": 42552,
  "åĪ«äºº": 101106,
  "è£Ķ": 110824,
  "Ġíķ´ëĭ¹": 94613,
  "Ġwurden": 47650,
  "æĳ¹": 119042,
  "akis": 75777,
  "à¸ªà¸¹à¸ĩà¸ªà¸¸à¸Ķ": 134397,
  "Ġ=\"\";Ċ": 98737,
  "Ġlayui": 67885,
  "/connect": 78489,
  "Pages": 17713,
  "ãģªãģĹ": 131450,
  "íĨ": 124154,
  "Ġ×ĳ×Ļ×©×¨×Ĳ×ľ": 129564,
  "_water": 54550,
  "_NEXT": 39987,
  "looking": 20363,
  "Resources": 11277,
  "ìĭ£": 145279,
  "agate": 46836,
  "å¾Ĺå¤©çĭ¬": 118364,
  "Ġ>Ċ": 6107,
  "Ġuh": 43744,
  "à¸§à¸´à¸Ķ": 142100,
  "ĠJOptionPane": 27080,
  "æ½Ł": 121680,
  ".Executor": 94500,
  "ĠApparel": 81600,
  "enor": 98731,
  "ðŁ¤³": 147437,
  "Ġchronological": 86534,
  "ĠRocky": 47541,
  "ĠCR": 12617,
  "âĻļ": 146449,
  "Ġ(~": 30757,
  "_unref": 49484,
  "Ġà¸ģà¹ĩ": 129300,
  "Ġtwentieth": 61420,
  "ĠIndependence": 43077,
  ".leading": 65223,
  "Ġfingert": 63603,
  "Ġinstruct": 21066,
  ".rabbit": 94577,
  "ãĦĽ": 150759,
  "Together": 80987,
  "(segment": 64137,
  "ucken": 96990,
  "èº²åľ¨": 114469,
  "pered": 42768,
  "ĠVehicle": 24707,
  "')?></": 85718,
  "æ¬Ĭ": 99976,
  "è¾ľ": 101844,
  "æıĲä¾Ľä¼ĺè´¨": 116533,
  "ëĳ¬": 144884,
  "TOCOL": 63994,
  "ëľĢ": 146966,
  "ĠJoanna": 90062,
  "èµĦè´¨": 104572,
  "ĠVaughan": 95148,
  "ĠLafayette": 77181,
  "ðĿĸĵ": 147137,
  "çİ¯å¢ĥåį«çĶŁ": 114741,
  "gress": 2483,
  "Ġabrasive": 93704,
  "ĠNRA": 52409,
  "Ġdealloc": 77670,
  "ç¶ļãģĦãģ¦": 141830,
  "ç»Ŀå¯¹": 101244,
  "åı³": 64817,
  ",request": 87382,
  "Lf": 66678,
  "ë¦ī": 144531,
  "UBE": 42389,
  "Ġwraps": 39709,
  "ðĿĲ³": 146698,
  "æľīçļĦäºº": 108636,
  "Ġestablishments": 62237,
  "_Impl": 60532,
  "åĶ¿": 120668,
  "ĠESPN": 26198,
  "àªķ": 148974,
  "Ġtales": 36465,
  "_shuffle": 73484,
  "æľ¬å±Ĭ": 106068,
  "ĠBarcode": 86732,
  "Population": 53371,
  "ĠmoÅ¼": 37947,
  "Ġneigh": 96166,
  ".aspect": 65979,
  "Ġdjango": 8262,
  "Ġadhesive": 64458,
  "_upgrade": 67794,
  "(next": 16913,
  "ĠCroat": 44082,
  "çīĪæĿĥå½ĴåİŁ": 116400,
  "ICAST": 93290,
  "æĥ³å¿ħ": 111013,
  "×¢×ĸ": 130495,
  "âŀķ": 145953,
  "ĉB": 12791,
  "âĵĻ": 150683,
  "(clazz": 67225,
  "éŃī": 121793,
  ".Bad": 45946,
  "ê¼½": 144640,
  "æŃ¢æįŁ": 112913,
  "éĩįå¡ĳ": 114108,
  "åĩ°": 101544,
  "Ġshoreline": 98064,
  "\"])ĊĊ": 45100,
  "ĠSVG": 39800,
  "èĥĮéĿ¢": 116522,
  "axy": 13773,
  "Ġusa": 33715,
  "plies": 7202,
  "èİĺ": 119088,
  "Ġwhistleblower": 90968,
  "ä¸Ģä¸Ŀ": 106371,
  "mur": 65106,
  "waÅ¼nie": 142049,
  "åĩĭ": 118630,
  "æĪĬ": 116913,
  "ĠÅ¼yc": 73492,
  "ĠREV": 65823,
  "ĠSnape": 85684,
  "å©Į": 122917,
  "OLF": 86016,
  "à¸ªà¸ķà¸´": 136831,
  "ä¸ªäºº": 99605,
  "ĠÐ²Ð°Ð¶": 135496,
  "ĠØ§ÙĦØ§ÙĪÙĦ": 136447,
  "Ġ×ľ×Ĵ×¨": 141832,
  "âĺĭ": 148205,
  "mÃ¨tre": 132754,
  "Code": 2078,
  "Ġgz": 76963,
  "ìłľ": 37087,
  "Ġproduces": 18644,
  "×©×Ļ×Ĺ": 133684,
  "ĠĠĠĠĠĠĠĠĠĠĠĠĠĠĠĠĠĠĠĠĠĠĠĠĠĠĠĠĠĠĠĠĠĠĠĠĠĠĠĠĠĠĠĠĠĠĠĠĠĠĠĠĠĠĠĠĠĠĠĠĠĠĠĠĠĠĠĠĠĠ": 46771,
  "ðŁĺī": 136879,
  "è´²": 120022,
  "stdClass": 78848,
  "lb": 21123,
  "ĠBolton": 61577,
  "Ġbusinessman": 46278,
  "ä»Ģä¹Īæł·": 117054,
  "ĠFAA": 65936,
  "ìŁ¨": 149101,
  "Ġrequer": 66687,
  "×ª×§×Ł": 136363,
  "çĸıå¯¼": 116513,
  "warehouse": 45546,
  "ÐĪ": 145208,
  "Ġunmarried": 94487,
  "Ġcrate": 17717,
  "volume": 25060,
  "è¦": 24071,
  "ÑĥÐ½Ð¸ÑĨÐ¸Ð¿Ð°Ð»ÑĮÐ½": 141809,
  "ĠDak": 24648,
  "Ġme": 752,
  "ĠLibya": 36959,
  "èĸª": 100311,
  "Ġimplemented": 11537,
  "wm": 19557,
  "_blocked": 89223,
  "Liverpool": 92605,
  "ÙħÙĪØ§": 125910,
  "ĠAccepted": 63289,
  "ERVE": 76079,
  "ĠWalnut": 85202,
  "çĮĽåľ°": 117890,
  "clare": 67554,
  ".SYSTEM": 82524,
  "_SEP": 92052,
  "âļ¥": 149678,
  "ê²½ìłľ": 132249,
  "Ġgá»Ń": 130505,
  "æĶ¹éĿ©": 99895,
  "_POINT": 27407,
  "Wunused": 51748,
  "ĠHuss": 78981,
  "ĠVerified": 63169,
  "()ĊĊĊĊ": 66929,
  "èĤ¥æĸĻ": 114426,
  "Ġfused": 74654,
  "Ġgravid": 89554,
  "ðĿĳ´": 148535,
  "Ġreboot": 34592,
  "tagName": 73273,
  "...ĊĊ": 2146,
  "ĠÃ§Ä±kÄ±ÅŁ": 143310,
  "/frontend": 73163,
  "->[": 69912,
  "Ġæ·»åĬł": 82339,
  "Ġunseen": 63133,
  "çĹĽãģ¿": 137657,
  ".requestFocus": 72580,
  "Ġ×¢×ķ×¨×Ľ×Ļ": 140858,
  "(t": 1155,
  "ĠGunn": 65149,
  "_IList": 88431,
  "Characteristic": 64982,
  "éĢīæīĭ": 105068,
  "ĠÐ½Ð°Ð¿": 90005,
  ".Companion": 94483,
  "ĠOffering": 66018,
  "cimal": 87099,
  "Di": 21685,
  "ĠCGPoint": 26353,
  "_SECONDS": 75351,
  "æĴĤ": 121354,
  "borg": 24210,
  "Ġfolders": 29242,
  "âĵĶ": 145750,
  "çļĦå¿ĥæĥħ": 107316,
  "à¸Ĭà¸·à¹Īà¸Ń": 128752,
  "ãĦ§": 151603,
  "ĉBase": 66732,
  "å¯¹æľªæĿ¥": 113756,
  "EMAIL": 35904,
  "ĠChristine": 45893,
  "âĶĬ": 146218,
  "æĻĶ": 122629,
  "ouple": 84389,
  "Cold": 76418,
  "Ġsexkontakte": 86278,
  "çļĦæĪ¿åŃĲ": 108119,
  ".green": 28954,
  "Ġantioxid": 45712,
  "Ġbelum": 90757,
  "ĠLDAP": 56379,
  "SCRIPT": 24787,
  "æĸĩçī©": 102609,
  "è½": 15213,
  "à¸«": 39172,
  "domain": 12204,
  "=headers": 54085,
  "wicklung": 69936,
  "Summary": 19237,
  "åĲĮæŃ¥": 104738,
  "è¿·ä¿¡": 115110,
  "illed": 4374,
  "ĠKore": 8062,
  "Ġ×Ķ×ŀ×ľ×Ĳ": 136042,
  "æ¶¼": 118178,
  "Ø³ØªØ®Ø¯Ø§Ùħ": 127732,
  "Ġ×ŀ×¡×¤×Ļ×§": 134983,
  "æ²Ĵ": 101173,
  "ĠSaga": 61712,
  "olia": 38160,
  "Api": 6563,
  "ĠBeijing": 26549,
  "_pack": 32995,
  "Ġfits": 18304,
  "âĪŀ": 144677,
  "Ġstorage": 5819,
  "ä¹ĭæĹ¥èµ·": 108652,
  "èµ¶ç´§": 105348,
  "campo": 56762,
  "Ġservants": 41732,
  "ĠArrayCollection": 98502,
  "_ast": 48019,
  "Ġkilograms": 84302,
  "è¶¯": 123764,
  "@Enable": 58643,
  "è«¸": 112427,
  "ieces": 29765,
  "à¸ķà¸³à¸£à¸§à¸Ī": 133823,
  ".nii": 78349,
  "ĠÐ±ÐµÑĢÐµÐ¼ÐµÐ½Ð½": 141054,
  "åĵĤ": 120107,
  "ä¸ľè¥¿": 100413,
  "Ġefect": 42946,
  ".\"ĊĊĊ": 31707,
  "remely": 53258,
  "Ġpathological": 88861,
  "Ġpartnership": 15305,
  "åĹľ": 114732,
  "Ġarrogance": 82743,
  "è°²": 121525,
  "Ä±yor": 125030,
  "_VIS": 54442,
  "Ġxlim": 93669,
  "ĉext": 95450,
  "ĠOffline": 66370,
  ".Generic": 4341,
  "ĠØ§ÙĦÙĨØ¨ÙĬ": 134588,
  "Ġxor": 53941,
  "ĠLod": 87940,
  "Ġmidfield": 29689,
  "ĠconnaÃ®t": 139807,
  "ĠTenant": 73724,
  "Ġproportion": 21117,
  "ÑĢÐ°Ð±Ð¾ÑĤ": 66086,
  "æļĤ": 100559,
  "Ġaficion": 93805,
  "Ġflavours": 70082,
  "ĠEins": 60352,
  "èĩĳ": 123694,
  "Ġsession": 3797,
  "ä¸įæĸŃæıĲé«ĺ": 106217,
  "Ġgeographical": 52901,
  "ĠNich": 25671,
  "ĠCatalyst": 87857,
  "ĠìĥĿìĤ°": 141091,
  ".decoder": 74047,
  "Ġblurry": 99055,
  "èŀįåĪĽ": 116371,
  "ĠCage": 57889,
  "Char": 4768,
  "ashing": 19049,
  ".Topic": 98354,
  "ĠReady": 30982,
  "ÙĥÙĦ": 124130,
  "Black": 14417,
  ">{$": 70046,
  "Ġconcept": 7286,
  "ĉrequire": 17957,
  "ä¸įåħ·å¤ĩ": 112958,
  "æ¸ħæ¾Ī": 113159,
  "Ġ[âĢ¦]": 27524,
  "æľĢåıĹæ¬¢è¿İ": 117860,
  "éĥ½èĥ½å¤Ł": 114680,
  "ĠåĬ": 54599,
  "ĠSerialized": 91472,
  "Ġmains": 68136,
  "à¸Ĺà¸µà¹Īà¹Ģà¸£à¸²": 131730,
  "modelo": 78451,
  ".ReadAll": 41851,
  "Ã¸y": 50248,
  "áĥĹ": 145989,
  "%\",Ċ": 20862,
  "found": 15105,
  "×Ķ×ª×Ļ": 137305,
  "ĠDataSet": 27036,
  "å¼Ģéĩĩ": 109521,
  "ĠÐ¿Ð¾Ñı": 134484,
  "stops": 98020,
  "Ġcommentaire": 86989,
  "Ġincoming": 19393,
  "íĭ±": 144333,
  "erase": 18688,
  "ï¯ĸ": 148934,
  "-bootstrap": 24383,
  "Ġcortisol": 88842,
  "Ġlecturer": 71135,
  "ĠSiber": 67500,
  "à¸£à¸ĵ": 128049,
  "ê¶¨": 150861,
  "Ġà¸ģà¸±à¸Ļà¸¢": 143135,
  "ĠPred": 29824,
  "Ġprescribed": 30931,
  "ĠĠĠĠĠĠĠĠĠĠĠĠĠĠĠĠĉ": 60123,
  "åĽ½éĺ²éĥ¨": 112877,
  "*i": 23019,
  "oracle": 69631,
  "ATTLE": 54393,
  "ï©Ĳ": 148825,
  "à¼ĭ": 146032,
  "çĥĺå¹²": 114077,
  "succ": 64441,
  "ĠserÃ£o": 98424,
  "ì¦Ĳ": 139762,
  "ÑĢÐ¾Ð²Ð°": 127830,
  "_RED": 33737,
  "Ġpredicting": 51897,
  "è·ĳéģĵ": 115280,
  "Ġmisdemeanor": 57992,
  "ĠJacqueline": 98664,
  "É¢": 146777,
  "ĠRack": 50039,
  "âĢĻT": 85501,
  "çĶ·ä¸»": 115591,
  "Ġew": 36890,
  "$value": 51122,
  "Change": 4072,
  "â¯": 128236,
  "Ġsinking": 61093,
  "Ġstylesheet": 73802,
  "_iteration": 62772,
  ".finish": 40086,
  "é©¿ç«Ļ": 116503,
  "è¡®": 120476,
  "ç¼©": 99872,
  "Ġformatter": 24814,
  "ĠsÅĤuÅ¼b": 143055,
  "åĽ«": 119711,
  "ãĪĲ": 149706,
  "ĉraise": 54018,
  "application": 5132,
  "å¼ºåĬ²": 107205,
  "Ġ..ĊĊ": 59482,
  "ĠAssemblyTrademark": 95827,
  "ĠJaw": 33194,
  "ĠIntersection": 79014,
  "ener": 798,
  "ðŁĮ½": 147796,
  "ĠentityType": 96801,
  ".parseLong": 60885,
  "Ġids": 14151,
  "Ð¿Ð°Ð½": 130850,
  "Ġrocks": 23035,
  "Ġcult": 4511,
  "âĨª": 145749,
  "à¸ŀà¸¥": 129687,
  "Ġdirent": 95957,
  "~ĊĊ": 58629,
  "Ð°Ð»Ð°": 95965,
  "åİŁæĸĩ": 103283,
  "ĠÐ¿Ð¾ÑįÑĤÐ¾Ð¼Ñĥ": 131603,
  ".nih": 69421,
  "Ġà¸Ķà¸±à¸ĩ": 133793,
  "ĠAdoles": 62637,
  "-floor": 79350,
  "ĠDream": 17829,
  "ë²µ": 145995,
  "ĠClaus": 67019,
  "è¿ĳåįĥ": 115834,
  "(collection": 35866,
  "Ġfestivities": 79359,
  "_folder": 15268,
  "jas": 29726,
  "å°±æ²¡": 109537,
  "ĠRoutedEventArgs": 31066,
  "×¤×¡×ĺ×Ļ×ĳ×ľ": 142315,
  "à¸Ńà¸²à¸Īà¸²à¸£": 137671,
  "Ġloss": 4709,
  "ì§Ģ": 21329,
  "Ġfiery": 63842,
  "ĠØ§ÙĦØ¢Ø®Ø±": 132491,
  "â²ŀ": 147780,
  "gunakan": 74705,
  "ibling": 19876,
  "Ġjournalistic": 93700,
  "Ġlui": 24397,
  "Ġwithheld": 76003,
  "friends": 29462,
  "ĠÐ¿ÑĢÐ¾Ð³ÑĢÐ°Ð¼Ð¼": 93408,
  "anguages": 10513,
  "zp": 93769,
  "Ġbesser": 70336,
  "resenter": 74646,
  "Ġmanifestations": 77067,
  ".cloud": 16935,
  ".skin": 59940,
  "ä½¿ä¹ĭ": 111840,
  "ĠLCD": 21976,
  "ĠÐ±Ñİ": 136763,
  "èĢĲ": 100796,
  "Ġmistakenly": 76534,
  "iser": 12059,
  "Ġsund": 50582,
  "Ġforged": 53199,
  "_poll": 40002,
  "Ġplan": 3119,
  "×Ļ×Ļ×¦×Ĵ": 142543,
  "ĠWarp": 77810,
  "å½¼ãĤī": 136283,
  ".compiler": 63790,
  "tools": 15918,
  "ï®ķ": 151183,
  "ĠÙĨÙĩØ§Ø¦ÙĬ": 142565,
  "åįıåĲĮåıĳå±ķ": 114065,
  "è¯´": 36587,
  "ĠÑģÑĥÐ¼Ð¼Ñĥ": 143434,
  "Ġdct": 90164,
  "à¸Ĺà¸²à¸Ļ": 126885,
  "ĠboxShadow": 68788,
  "ĠEinstein": 54052,
  "unky": 69205,
  "Ġtrays": 91725,
  "Ġdiligence": 62482,
  "they": 20069,
  "æŃ¤æ¬¡": 101974,
  "ĠSoil": 75519,
  "currency": 15973,
  "ĠZZ": 90181,
  "Spider": 72908,
  "ðŁļ¿": 147797,
  "Ġpiger": 38771,
  "_compat": 89602,
  "ï¸µ": 146084,
  "-facing": 63306,
  "Ġbá»¥i": 142522,
  "ĠÐ²ÑģÑİ": 140002,
  "}\")ĊĊ": 55266,
  "ĠJaune": 86125,
  "ä¸ĩåįĥçĵ¦": 115317,
  "Ġetwa": 77556,
  "æĪ¿éĹ´": 102327,
  "çĽ¸åħ³éĥ¨éĹ¨": 105751,
  "ĠBarb": 46042,
  "ĠAppro": 18642,
  "_decl": 35814,
  "Ġthru": 40078,
  "_go": 25515,
  ".setViewport": 88951,
  "å¹¹": 113776,
  "Ġopting": 74601,
  "ĠNovember": 6702,
  "ãĤ³ãĥŁãĥ¥": 143657,
  "äºĴèģĶ": 103211,
  "çŁ¿": 99766,
  "ĠgÃ¼Ã§": 127305,
  "ĠAnaheim": 71164,
  "alan": 32283,
  "Ġmultip": 12557,
  "ĠpozostaÅĤ": 139667,
  "_checks": 75797,
  "ìį»": 147016,
  "èİ²": 102341,
  "(),čĊ": 24853,
  "sa": 9081,
  "âĶħ": 147793,
  "Ġjednak": 75225,
  "ĠVerizon": 42314,
  "ĠÐ¿ÑĢÐ¾Ñģ": 140668,
  "æ¯ĶæĪĳ": 112000,
  "Ġobjections": 53011,
  "Ġpropag": 16992,
  ".micro": 61802,
  "Ġroughly": 17267,
  "ĠDiv": 8765,
  "ĠìĿ´ë¯¸": 90667,
  "Ġspacing": 25943,
  "è¡°èĢģ": 113197,
  "ĠIhrer": 75077,
  "Ir": 48113,
  "]',": 27838,
  "Ġestaba": 63224,
  "ãģĵãĤį": 125049,
  "âĺĤ": 145866,
  "Ġassured": 27378,
  "ounder": 92906,
  "Ø¹Ø§": 125072,
  "Ġinference": 44378,
  "æĬ¥çº¸": 107574,
  "Prompt": 54615,
  "å»ºç«ĭ": 100641,
  "ĠGNOME": 97586,
  "ÙĤØ¶ÙĬ": 138473,
  "ĠPistol": 83814,
  "Ġ×Ķ×ľ×ľ×ķ": 136833,
  "Ġtrains": 27688,
  "lake": 62110,
  "Ġhe": 566,
  "å¦«": 119780,
  "ĠNew": 1532,
  "Ġhoy": 48741,
  "sizei": 60643,
  "ĠCr": 4553,
  "å³Ħ": 119887,
  "Ġslow": 6301,
  "è®¶": 103091,
  "ĠBill": 8596,
  "ĠbÃŃ": 132642,
  "Biz": 97481,
  "âľı": 145756,
  "Ġvomiting": 62471,
  "æľīéĴ±": 106666,
  "ĠAFP": 26648,
  "adol": 86769,
  "å¿ĥå¤´": 111419,
  "ĠÐ¸Ð·Ð¼ÐµÐ½ÐµÐ½Ð¸Ñı": 138506,
  "å¸¥": 119236,
  "ĠPersona": 53890,
  "Ġdando": 92645,
  "èĢģäºº": 102032,
  "Ġdatum": 41556,
  "èĤ¼": 119922,
  "Ð¼Ð¾Ð¶Ð½Ð¾": 128183,
  "sortable": 65598,
  "Ġhaut": 61221,
  "è¿Ħä»Ĭ": 103844,
  "Ġfrustration": 31986,
  "èµĩ": 120686,
  "åŁ¤": 120566,
  "×Ĺ×ķ×ŀ": 136725,
  "×ĳ×ĵ": 124276,
  "clid": 75044,
  "ĠSTEM": 63082,
  "Ġunconditional": 83563,
  "']->": 14569,
  "_rt": 40169,
  "Reserved": 53003,
  "ĠInvisible": 89038,
  "ĠØ§ÙĦÙģÙĥØ±": 137020,
  "chluss": 93383,
  "ĠÐ´ÐµÐ¿ÑĥÑĤÐ°ÑĤ": 143383,
  "Ġauthorised": 69384,
  "Ġmomento": 30121,
  "clist": 84009,
  "\"){čĊ": 50938,
  "éĻªçĿĢ": 114084,
  "èĦļæŃ¥": 103366,
  "ĠØ§ÙĦØµØ§Ø¯Ø±": 142740,
  "lod": 82482,
  "ateway": 12043,
  "pour": 54519,
  "(MPI": 76840,
  "Ġtas": 51214,
  "Ð¼ÐµÐ¶Ð´ÑĥÐ½Ð°": 137555,
  "ì¥ī": 151448,
  "ä¸įå¾Ĺè½¬è½½": 113056,
  "æłª": 102868,
  "ĠÃ¶ÄŁrenc": 127589,
  "Ġpiled": 76331,
  "çģ¯ç¬¼": 114154,
  "Ġclimb": 25367,
  "skÄħ": 131944,
  "Ġvr": 36100,
  "ĠÐ¾ÑĢÐ³Ð°Ð½Ð¸Ð·Ð°ÑĨÐ¸Ñı": 142390,
  "Ġtotalmente": 80141,
  "Ø³Ø¯": 127132,
  "Ġtracks": 13918,
  "Ġinicial": 48556,
  "ORT": 2868,
  "/location": 91505,
  "ãģ¾ãģ£ãģŁãģı": 141353,
  "Ġcollege": 7770,
  "ĠØ§ÙĦØ¹ÙĨ": 132638,
  "ðĿĶ´": 151324,
  "æľįåĬ¡æ°´å¹³": 113787,
  "åľĨæ»¡å®ĮæĪĲ": 116272,
  "\"><?=$": 56390,
  "=array": 24529,
  "ĠtimeZone": 98764,
  "ĠÐ¿Ð¾ÐºÐ°": 131636,
  "ĠLar": 31304,
  "EATURE": 21361,
  "Ġmembuat": 76234,
  "vier": 46716,
  "Ġzip": 10308,
  "ĠCÃ¡c": 128678,
  "/A": 10360,
  "ĠMd": 53110,
  "éĽ¯": 108956,
  "ĠRTAL": 76160,
  "ãĤĴä½¿ãģĨ": 137236,
  "\"\"": 3014,
  "à¹Ģà¸Īà¸£à¸´à¸į": 138004,
  "Ġ(`": 28654,
  ">\";ĊĊ": 32423,
  "ãģĹãģ¦ãģĦãĤĭ": 126210,
  "å¾Ĺå¾Ī": 105919,
  "ARGET": 16474,
  "Ø§ÙĦØ£Ø±": 135411,
  ".FixedSingle": 59160,
  ".getToken": 56386,
  "çĶ²çĬ¶": 115292,
  "Ġarrog": 43736,
  ".LOG": 36202,
  "çĲĢ": 122747,
  "çĦ¡ãģĹãģķãĤĵ": 86374,
  "@Override": 5995,
  "Ġstatement": 5114,
  "ĠWaste": 48422,
  ".Source": 30350,
  "ĠØ§ÙĦØŃØ§ÙĦÙĬ": 134898,
  "ä»ĭç»įä¸Ģä¸ĭ": 109432,
  "-lg": 7510,
  "à¸Ķà¸¹": 125441,
  "ĠConce": 78618,
  "ĠÙģØ¹ÙĦ": 131394,
  "gems": 99053,
  "Ġ\".": 5933,
  "optgroup": 96330,
  "ahoma": 27840,
  "_AMOUNT": 59993,
  "inea": 34418,
  "åį´æĺ¯": 104461,
  "ĠìĿ¼ìĿ´": 136168,
  "Ġflood": 17726,
  "ĠParameter": 15168,
  "Ġuncomfort": 26726,
  "xsd": 82370,
  "osit": 34054,
  "Ġmemorandum": 81658,
  "à¹Ģà¸¥à¸·à¸Ńà¸Ķ": 133925,
  "Ġliberty": 30120,
  "á": 157,
  "æīĢä»¥æĪĳ": 107020,
  "æĪª": 100263,
  "Ġwardrobe": 45746,
  "ì§Ħ": 85251,
  "Ġencoding": 11170,
  "Ġmqtt": 59431,
  "Ġillustrator": 93365,
  "_CO": 19628,
  "IRA": 60556,
  "Ġtall": 16217,
  "å®īç½®": 105529,
  "ãģĮãģĤãĤĭãģ®ãģ§": 137984,
  "kind": 15314,
  "é¡¼": 120285,
  "ĉZEPHIR": 95625,
  "ç¬¬åħŃå±Ĭ": 116851,
  "----Ċ": 32609,
  ".DateTimePicker": 58723,
  "æ·Ł": 122883,
  "Êĥ": 145388,
  "Ġdesenv": 60244,
  "ç»ĦæĪĲçļĦ": 107339,
  "Ġfrequ": 6166,
  ".pipe": 35924,
  "yny": 56404,
  "ï½¯": 144279,
  "itable": 15368,
  "Ġbaked": 40678,
  "èĪµ": 119029,
  "å¶ħ": 123135,
  "ĠSpare": 95205,
  "ï³¥": 150288,
  "ONES": 60289,
  "Ġ×ķ×Ķ×ª": 133258,
  "ricane": 25053,
  "Ġsare": 77345,
  "çıįçıł": 109986,
  "buster": 55552,
  "ĠEuler": 80018,
  "(Throwable": 61513,
  "éħįå¤ĩäºĨ": 115736,
  "Ġbá»ĳ": 128888,
  "Ġ///Ċ": 17057,
  "_viewer": 80344,
  "ãģ¿ãĤĵãģª": 132240,
  "çĽ®ãģ«": 133944,
  "ĠWB": 52503,
  "-party": 24031,
  "éĽĨä¸Ńåľ¨": 110678,
  "Ġnerv": 19658,
  "çº¤": 101538,
  "pull": 23441,
  "_SEQUENCE": 74018,
  ":id": 39125,
  "à¶¯": 148874,
  "Ġstrives": 74551,
  "ĠÃ¼lkeler": 136675,
  "ĠAPS": 91781,
  "ï¯§": 149844,
  "=n": 21747,
  "ÙĥØ¯": 125344,
  "ëĲ©ëĭĪëĭ¤": 130885,
  "Ġella": 53501,
  "Ġalkal": 65687,
  "slide": 19341,
  "ĠDynamic": 21886,
  "ĠGobierno": 84072,
  "Ġdocumenting": 66971,
  "ĠparamMap": 87056,
  "Power": 14986,
  "EncodingException": 56637,
  "_ass": 12083,
  "Ġsupporter": 36463,
  "Ġfading": 58517,
  "ãģ£ãģ¦ãģĹãģ¾": 124989,
  "Ġíģ¬": 143230,
  "nP": 86749,
  "ĠÙĦØ¯ÙĬÙĥ": 142360,
  "åĮ»çĶŁ": 103998,
  ":self": 10899,
  "ĠPRE": 20952,
  "Ġhotels": 24332,
  "Ġsixty": 52374,
  "Ġpobli": 142092,
  "invalidate": 90835,
  "Ä±ÅŁ": 32473,
  "ĠimageName": 66073,
  "Ġproporcion": 79843,
  "ãĤĵãģ©": 126989,
  "(out": 9828,
  ".CustomButton": 85437,
  "Supported": 34636,
  "âŀ¨": 145477,
  "èµ¶æĿ¥": 115756,
  "ãĪ±": 145331,
  "Integrated": 82437,
  "æ¬£æħ°": 114492,
  "Ġska": 53727,
  "ĠAmmo": 79481,
  "ĠTemporary": 54448,
  "äºĭåĬ¡": 101436,
  "Ġfive": 4236,
  "(route": 31436,
  "íĮŁ": 144892,
  "Ġenlist": 87624,
  "âľ¼": 146616,
  "ĠSpirit": 16899,
  ".storage": 22403,
  "âĢ¦âĢĿ": 50179,
  "Ġconstruction": 8086,
  "Ġconditional": 34687,
  "UU": 86564,
  "åį£": 119692,
  "×§×Ļ×ĵ×ķ×Ŀ": 133710,
  "Density": 66719,
  "Tokens": 29300,
  "Ġswitches": 31167,
  "elementGuidId": 88375,
  "ĠMc": 4483,
  "ĠChrysler": 63935,
  "ĠKC": 21084,
  "AMI": 66568,
  "AnimationsModule": 64179,
  "æŃ£åľ¨": 96555,
  ".pin": 50642,
  "ancock": 74081,
  "èľĴ": 119433,
  "ĠÑĥÐ²ÐµÑĢÐµÐ½": 137893,
  "âĩ²": 149637,
  "Ġdirekt": 54831,
  ".nickname": 67521,
  "ĠCorrection": 63069,
  "acji": 33378,
  "åĨ¯": 104822,
  "Ġmant": 25889,
  "ĠĠĠĠĠĠĠĠĠĠĠĠĠĠĠĠĠĠĠĠĠĠĠĠĠĠĠĠĠĠĠĠĠĠĠĠĠĠĠĠĠĠĠĠĠĠĠĠĠĠĠĠĠĠĠĠĠĠĠĠĠĠĠĠĠĠĠĠĠĠĠĠĠĠĠ": 14642,
  "ĠKang": 54276,
  "orb": 29886,
  "Alive": 32637,
  "ĠSection": 11113,
  "pio": 11917,
  "encode": 6180,
  "Ġagent": 8315,
  "Ġerratic": 94575,
  "ĠMayweather": 97334,
  "ĠAlexandre": 89054,
  "('*": 32014,
  "æ¿Ĵä¸´": 116872,
  "-g": 2371,
  "çļĦæĬķèµĦ": 106830,
  "Returning": 84814,
  "æľ´ç´ł": 117218,
  "å»ĳ": 123385,
  "ä¹Łåı¯": 106332,
  "/commons": 91567,
  "ØªÙĨÙģÙĬ": 130379,
  "Ġracing": 21313,
  "-popup": 47536,
  "kubectl": 79971,
  "âµı": 147042,
  "Ð¾Ð±ÑĢÐ°Ð¶ÐµÐ½": 136410,
  "ç®ľ": 121457,
  "æŃ£æĺ¯åĽłä¸º": 112885,
  "ï¼ļĊĊ": 48443,
  ">The": 16357,
  "-wh": 55332,
  "Ġduties": 21300,
  "Ġ`,": 90190,
  "ç»ıèĲ¥": 99881,
  "æľ¨æĿĲ": 109048,
  "çľĭäºĨçľĭ": 110449,
  "ëĭ®": 144683,
  "é»ĳå¤ľ": 117507,
  "<Post": 68213,
  "multi": 26268,
  "getStore": 80579,
  "à¸ķà¹Į": 124707,
  "[string": 14032,
  "-bot": 89361,
  "(resultSet": 64457,
  "ä¾¿ç§ĺ": 111795,
  "ĠDresses": 93517,
  "ä¸īå¤§": 101287,
  "/page": 32180,
  "Ġreceived": 3949,
  "ĠKitchen": 19354,
  "Ġpound": 30023,
  "nection": 1821,
  "ĠYoga": 37573,
  "ĠcurrentNode": 46299,
  "ì¼Ļ": 151061,
  "Ġdrawbacks": 88073,
  "Ġchanger": 61339,
  "_count": 3180,
  "Ġacid": 13621,
  "Ġkvinn": 49973,
  "ðŁĴ±": 147977,
  ".JsonProperty": 74469,
  "Ġlot": 2696,
  ".nan": 37161,
  "ceipt": 24130,
  "Ġtemperatura": 82953,
  "ĠEthereum": 33946,
  "Ġwalk": 4227,
  "åĳĬè¯īæĪĳä»¬": 110620,
  "inati": 97040,
  "ÑĤÐ¸": 22496,
  "association": 54465,
  "_{": 15159,
  "_LOC": 16397,
  "åħļæĶ¯éĥ¨": 102419,
  "Ġutilizado": 98533,
  "KERNEL": 82381,
  "ì¹«": 144793,
  "ä¸ŃåįĪ": 105747,
  "ĠMSE": 94599,
  "ĠLAND": 91856,
  "çºĤ": 122069,
  "\\Requests": 44032,
  "Imagen": 64578,
  "ĠEngines": 94318,
  "nÄ±zÄ±": 134502,
  "productId": 46166,
  "åŃ¢": 119044,
  "ĠmiesiÄħc": 133704,
  "éŃĭ": 123634,
  "ç¥ŀ": 99315,
  "ĠÃ§ekil": 140033,
  "-el": 83149,
  "áºłI": 141301,
  "âĤŃ": 150215,
  "ĠtrÃ¡ch": 131368,
  ".": 13,
  "Ġ×Ķ×Ļ×Ķ": 126215,
  "SEC": 25548,
  "èĥĮåĲİ": 101423,
  "à¸Ħà¸Ļà¹Ħà¸Ĺà¸¢": 139119,
  "çĴº": 122070,
  "Ġë¬¸ìłľê°Ģ": 137903,
  "Adds": 72111,
  "Ġsums": 36398,
  "èıĮ": 100517,
  "(sql": 13148,
  "ĠespaÃ§o": 98872,
  "ĠĠĠĠĠĠĠĠĠĠĠĠĠĊ": 28247,
  "è¯¦ç»ĨäºĨè§£": 116701,
  "ĉRT": 11826,
  "Ġvisits": 21051,
  "ĠIronically": 93880,
  "ĠO": 506,
  "Ġtended": 48790,
  "ĉvolatile": 31119,
  "ç¬¦åĲĪ": 101137,
  ".visitVarInsn": 55165,
  "Ġenclosed": 43810,
  "working": 21152,
  "ì§¢": 147018,
  "ĉList": 10675,
  "Ġshoes": 15294,
  "ĠDSM": 79167,
  "Ø§Ùĭ": 128257,
  "ĠØ§ÙĦÙĦÙĬØ¨ÙĬ": 143509,
  "_quant": 53346,
  "çļĦæĥħåĨµä¸ĭ": 104248,
  "(message": 7333,
  "\"))": 2761,
  "×ķ×ľ×ĺ": 134566,
  "_regex": 41832,
  "Ġgovernments": 16636,
  "Ġinconvenient": 83683,
  "ĠOsc": 55636,
  "×ľ×©×ķ×Ł": 138707,
  "-left": 7950,
  "Ġshel": 73035,
  "_mass": 36714,
  "ĠMelania": 82170,
  "ĠmunicÃŃpio": 136333,
  "_od": 51797,
  "×ŀ×Ķ×Ļ×¨×ķ×ª": 136345,
  "ĠBV": 40100,
  "Ġjourneys": 63776,
  "ĠCommod": 78180,
  "Ġadopted": 17827,
  "ĠorganisÃ©": 142892,
  "å®ī": 50285,
  ",result": 58241,
  "ë¶ĩ": 147015,
  "=\"/\"": 44609,
  "åģģ": 122842,
  "Ġphoto": 6548,
  "ĠuseForm": 90926,
  "ĠMessageType": 62336,
  "NOP": 57556,
  "ĠKern": 84687,
  "(Get": 24460,
  "ãģĭãĤīãģªãģĦ": 127767,
  "sÃ¤tze": 140053,
  "Ġbabes": 59500,
  "Ġperceptions": 50766,
  "Ġrealms": 76463,
  "ĠìľĦìĽĲ": 143128,
  "æ²³æµģ": 103274,
  "âĽ": 123947,
  "è°ĪåıĬ": 116156,
  "ÑĥÐ½": 34197,
  "éĩįè¦ģåĽłç´ł": 118049,
  "ï¥ħ": 149809,
  "ãĤ·ãĥ³ãĥĹ": 143295,
  "áĥ¡": 145908,
  "Ġdiffuse": 54417,
  "Ġpurch": 4902,
  "Ġrisks": 15276,
  "ä¸īç§įèģĮä¸ļ": 113510,
  "uce": 10521,
  "åħ»çĶŁ": 105436,
  "ä¾Ľæ±Ĥ": 118321,
  "åį³ä¾¿æĺ¯": 109525,
  "èµĹ": 123190,
  "ĉpid": 78799,
  "à¸Ķà¹īà¸§à¸¢à¸ģà¸²à¸£": 134161,
  "è§Ĥå¯Ł": 104144,
  "\"But": 41413,
  "èµĦäº§éĩįç»Ħ": 117158,
  "åĵ½": 120368,
  "Ġrá»Ŀi": 138559,
  "ãİ¾": 147055,
  "atat": 92484,
  "ĠOffices": 86538,
  "ÐµÐ²Ð¾Ð¹": 135790,
  "âŁ¾": 150724,
  "ĠMutex": 66215,
  "Ġara": 127238,
  "íĮĮíĬ¸": 143083,
  "åķĨåĵģæĪ¿": 110371,
  "Deg": 45657,
  "ðŁį·": 146163,
  "ĠLimits": 71855,
  "ìķĦë²Ħ": 142519,
  "Ġuwag": 134907,
  "ä¿Ĳ": 118459,
  "âĸĦ": 145696,
  ".Factory": 51008,
  "åħ³æĢĢ": 107045,
  "ìĨĲ": 130640,
  "Weak": 49649,
  "Ġdramas": 87726,
  "ĠSick": 81311,
  "ĠPapua": 89081,
  "got": 22390,
  "Ġhá»ıi": 129087,
  "Cos": 54224,
  "Random": 13999,
  "åĲįå¸Ī": 112406,
  "(peer": 63372,
  "åīįèº«": 113877,
  "ä¸Ģä¸ªæĺ¯": 108075,
  "UserData": 39485,
  "×¤×©×ķ×ĺ": 139579,
  "éĤ¶": 119690,
  "ä»Ĭå¤©å°ıç¼ĸ": 108454,
  "ĠKor": 35070,
  "ä»ĬåĽŀ": 127213,
  "Ġdisagree": 28295,
  "Future": 24206,
  "_Em": 76060,
  "ef": 823,
  "uede": 63667,
  "éļıåĲİ": 104221,
  "$i": 33119,
  "_accuracy": 41358,
  "ðŁ¦ł": 148407,
  "ĠpÅĤ": 94232,
  "ĠShepherd": 58546,
  "ãĥĲãĥ³": 134687,
  "Ġdeine": 72701,
  "Ġsus": 4481,
  "ĠThurs": 82685,
  "à¸ģà¸²à¸£à¸£à¸±à¸ģà¸©à¸²": 140405,
  "ĠPOSIX": 72147,
  "ĠHover": 85569,
  "$sub": 94508,
  "ëĤĶ": 150273,
  "MeshPro": 90530,
  "bla": 64726,
  "çĥģ": 103514,
  "éĥ½ä¸įæĺ¯": 110056,
  "ĉcurr": 54966,
  "åļ´": 103286,
  "ç»Ļä½łä»¬": 116416,
  "STALL": 31037,
  "Ġpara": 3348,
  "_TRA": 39096,
  "ĠÐ³Ð´Ðµ": 129162,
  ",...": 28675,
  "Ġìļ°ë¦¬ëĬĶ": 131746,
  "Ġalmacen": 83227,
  "idi": 12278,
  "ĠMutableLiveData": 55281,
  "åĮĹäº¬": 68990,
  "ĠKeyValue": 98620,
  "tps": 96031,
  "Ġ×©×ľ×Ļ": 128554,
  ")size": 87903,
  "Ġsimulation": 19038,
  "Ġdazz": 59918,
  "Ġ()": 1719,
  "ĠPhÃ¡p": 132034,
  "ĠREQUIRE": 27972,
  ".proc": 83430,
  "Ġexceptions": 19585,
  "ju": 8613,
  "èĸ°": 119221,
  "ÙħØ±Ø§Ùĥ": 138282,
  "ä¹°å®¶": 108840,
  "ãĥĥãĥģ": 126636,
  "Ġ×Ķ×Ĳ×Ŀ": 128807,
  "Ã¼nc": 143388,
  "ìĨŁ": 144894,
  "Ġretal": 50146,
  "Acknowled": 90236,
  "loomberg": 90072,
  "Ġscout": 53494,
  "çİĭåºľ": 114075,
  "åĲĥè¿ĩ": 111505,
  "ĉintent": 91173,
  "è£¹": 103175,
  "Ġcolleagues": 17639,
  "Ġrehearsal": 88855,
  "istinguished": 79282,
  "åħ¬åħ±åľºæīĢ": 117262,
  "×ĳ×ľ": 124111,
  "ÙħÙĬÙĦ": 125676,
  "icken": 9692,
  "å°Ĩä¼ļ": 104347,
  "Cel": 87616,
  "ìµĿ": 148027,
  "Ġbrowser": 6929,
  "cpu": 16475,
  ".\",": 10465,
  "çĥŃè®®": 112353,
  "×ĳ×Ļ×¨": 125810,
  "ĠPeace": 25803,
  "ãĥ¡ãĥ³": 127230,
  "ĠCCD": 92733,
  "âı¤": 149658,
  "ĠVinci": 96766,
  "Ġdisg": 32183,
  "Ġ×ĸ×Ĳ×ª": 128602,
  "Ġappellant": 89100,
  ".forRoot": 44110,
  "ĠOrt": 44340,
  "Ġerad": 55437,
  ":NS": 23787,
  "foon": 94776,
  "ree": 765,
  "ĠfamÃŃlia": 132492,
  "ðĿĩĬ": 151296,
  "achelor": 24736,
  ".Navigate": 73694,
  "grading": 32259,
  "(configuration": 48724,
  "ä¾¡": 93901,
  "æİ§": 99332,
  "ackets": 18382,
  "ĠVisual": 20185,
  "ĠPaul": 6898,
  "_hour": 32292,
  "dead": 33754,
  "%ï¼Į": 69982,
  "Ġvolcanic": 66064,
  "å»Ĩ": 123075,
  "çļĦå±ĢéĿ¢": 108785,
  "Ġseek": 5931,
  "=find": 60517,
  "ðŁı³": 147233,
  "rending": 61994,
  "×ĺ×§×¡×ĺ": 135666,
  "atte": 62634,
  "ï¬»": 147560,
  "ĠPositioned": 89981,
  "-team": 42842,
  "ĠLaos": 95744,
  "Ġjc": 72818,
  "åĪĨå¨©": 114157,
  "ä¸įå¿ħè¦ģçļĦ": 113802,
  "Ġpremiered": 84070,
  "à¸ŀà¸¤à¸ķà¸´à¸ģà¸£à¸£à¸¡": 143650,
  "æĢ»ä¼ļ": 106529,
  "Ġairy": 96963,
  "ÙĦØ§Ø²Ùħ": 140774,
  "æķ´ä½ĵ": 101932,
  "(sf": 33804,
  "à¸Ńà¸¢à¸¹à¹Īà¸Ĺà¸µà¹Ī": 133402,
  ";y": 70863,
  "×ĵ×Ķ": 124827,
  "uga": 36960,
  "ĠÙĦÙĦØª": 131037,
  "ĠJAXBElement": 80140,
  "ritic": 49208,
  "Ġworried": 17811,
  "Ġmou": 53309,
  "ĠÐ½Ð°ÑĢÐºÐ¾": 141825,
  "åĲ¼": 108953,
  "Birthday": 76561,
  "Lens": 98105,
  "Pok": 92176,
  "ĠKristen": 76114,
  "à¸Ńà¸±à¸ķà¹Ĥà¸Ļ": 143997,
  "ĠmogÄĻ": 139359,
  "Ġadvancing": 43069,
  "æĹĭè½¬": 108215,
  "ĠAnthony": 20696,
  "ĠJNIEnv": 85753,
  "Ġinhibit": 67933,
  "×§×ķ": 126226,
  "Ġthiá»ĥu": 141700,
  "RowAtIndexPath": 33058,
  "ë¨ľ": 150118,
  "Ġstandoff": 84327,
  "æŀ¶": 99630,
  "ĠSkin": 26951,
  "_TIMER": 31833,
  "tha": 22410,
  "hythm": 60154,
  "Ġ*)\"": 93652,
  "ëī¨": 150887,
  "itary": 44806,
  "ĠTEST": 13602,
  "authors": 47005,
  "\"math": 78128,
  "locations": 31309,
  "ðĿĺ¬": 149167,
  ".inspect": 58254,
  "Ġshallow": 25600,
  "ĠØ¨ÙĬÙĨ": 126212,
  "ðĲ°": 126191,
  "ĠPlayerPrefs": 59283,
  "Ð´Ð¾Ð±": 132685,
  "gorithms": 18980,
  "ĠUkr": 14299,
  "LinearLayout": 49774,
  "ĠBuild": 7854,
  ".COMP": 77673,
  "ĠColumbia": 18796,
  "ĠUSDA": 59991,
  "fgets": 98993,
  "ornment": 94475,
  "ĠÐ±ÑĭÐ»Ð°": 129760,
  "ä¸Ńå¿ĥä¸»ä»»": 112585,
  "_article": 37321,
  "çĮ©": 119438,
  "stad": 46840,
  "Ġquam": 89839,
  "ç²¾ç»ĨåĮĸ": 110076,
  "icap": 97350,
  "à¸Ľà¸£à¸°à¸Ĭà¸¸à¸¡": 133680,
  "Ġfigures": 12396,
  "ingles": 49603,
  "èĤ¡æĿĥè½¬è®©": 114845,
  "ĠØ¹Ø¨Ø¯": 125584,
  "Ġ×ł×Ĺ×©×ĳ": 140109,
  "ĉcm": 98316,
  "éĥŃ": 104161,
  "ç´Ļ": 111906,
  "à¸Īà¸±à¸¢": 127678,
  "Ġ//!": 17664,
  "]]ĊĊ": 42450,
  "äºĮåįģ": 104294,
  "cant": 65263,
  "CV": 19589,
  "replace": 8156,
  ".fake": 94624,
  "ZZ": 33536,
  "ðŁį»": 146329,
  "Ø±Ø§Ø¨": 127106,
  "åĨľæľº": 110643,
  "å¿ĺè®°äºĨ": 113713,
  "Ġdemocrat": 96067,
  "ariate": 49659,
  "ĠHydro": 39502,
  "-results": 64770,
  "FTP": 56468,
  "_exc": 45647,
  "_TEMP": 41244,
  "ĠìĤ¬ê±´": 138629,
  "Ġsubtraction": 75240,
  "ï©į": 150194,
  "(sign": 40046,
  "éģ¿å¼Ģ": 109595,
  "ä¸ŃåĽ½éĺŁ": 111734,
  "ubernetes": 29827,
  "å¸ĤåľºçļĦ": 104669,
  "éº¼": 100283,
  "å¹Ħ": 120952,
  "ãģ©": 66545,
  "Their": 34797,
  "ĠGAP": 89887,
  "Ġ.$": 45377,
  "íĥł": 144908,
  "ĠFilipino": 62417,
  ",\\\"": 52318,
  "Ġphilosophical": 40803,
  ".TypeOf": 73921,
  "IBC": 86140,
  "èĴĻåı¤": 102626,
  "ĠTelecom": 70864,
  "×¦×Ļ×¤": 138822,
  "ĠØ¨Ø±ÙĨ": 130440,
  "theon": 63010,
  ":y": 69203,
  "ê¿ı": 150872,
  "Ġreturns": 4675,
  ".response": 11362,
  "ëª¹": 144984,
  "ĉargs": 31215,
  "ĠCells": 58090,
  "_SOURCE": 25430,
  "-datepicker": 58564,
  "ì¼ģ": 148083,
  "Ġtreasury": 78253,
  "ĠBands": 87302,
  "ç¶ĵæŃ·": 117569,
  "æ°£": 104200,
  "VP": 13378,
  "Ġsidew": 31517,
  "ÃĹ": 17568,
  "anker": 98248,
  "Ġì¢Ģ": 130572,
  ")++;Ċ": 95892,
  "Ġannoy": 37192,
  "å°ıåĮº": 102039,
  "ç§¸": 103597,
  "ç¦ĭ": 123269,
  "ĠAcceler": 46905,
  "ç¦»å©ļ": 105209,
  "Ġcompetitive": 14680,
  "Ġbon": 7814,
  "ListItemIcon": 95247,
  "ĠClash": 84570,
  "åľ¨åĽ½åĨħ": 105843,
  "Ġmould": 50270,
  "ĠThá»ĥ": 141770,
  "ĠLista": 53002,
  "Ġcurse": 40000,
  "ä¸įåºĶè¯¥": 108902,
  "eldig": 98411,
  "bilitÃ©": 133296,
  "Ġrelev": 78315,
  "ĠØ¨Ø¯ÙĪÙĨ": 135172,
  "kan": 8656,
  "portunity": 67064,
  "Ġdistra": 57471,
  "×ª×Ĺ×ķ×©×ª": 143902,
  "çıĿ": 122577,
  "Ide": 74244,
  "åłħ": 103533,
  "æ¾Ĥ": 123491,
  "æĤ£ä¸Ĭ": 113281,
  "ê²»": 147413,
  "Mah": 46208,
  "ĠstartActivity": 18273,
  "Ġice": 9853,
  "âĬ°": 146759,
  ".auth": 8967,
  "ĠPotential": 53957,
  "éĨĴæĿ¥": 109877,
  "~~~~~~~~~~~~~~~~~~~~~~~~~~~~~~~~": 65648,
  "Ġ[-": 10055,
  "Ü": 152,
  "×ª×Ĺ": 124065,
  "Ġthread": 4516,
  "asin": 50310,
  "here": 6739,
  "ĠnewSize": 80843,
  "Ġ<=>": 71505,
  "èģ¯çµ¡": 117973,
  "might": 44968,
  ">Type": 87065,
  "ĠdiffÃ©rence": 143108,
  "Æ°u": 125672,
  "Ġdrink": 7027,
  "azione": 15013,
  "ãĤĶ": 148455,
  "æī§æĶ¿": 109072,
  "EB": 8264,
  "há»ķ": 137390,
  "Ġtitre": 63060,
  "ä¿ĥ": 100028,
  "_router": 55587,
  "Ġinjust": 97653,
  "bringing": 79988,
  "ocate": 81515,
  "ÇĬ": 150327,
  "åħģè®¸": 102496,
  "lÃ³g": 142312,
  "à¸Īà¸±à¸ĩà¸«à¸§": 129583,
  "Ġgrandparents": 55335,
  "Ġelig": 14176,
  "conditional": 45368,
  "Ġsale": 6278,
  "ĠestÃ¡": 15466,
  "ĠQueries": 85873,
  "ĠAsk": 20437,
  "Ġhaci": 76903,
  "ĠcosÃ¬": 68662,
  "ĠÃ³rgÃ£o": 143014,
  "ĠControl": 7779,
  "éĩĳé¢Ŀ": 80094,
  "/../": 78380,
  "å¹²è´§": 117561,
  "Ġstamp": 21206,
  "äº¢": 113976,
  "drag": 33931,
  "seeing": 65054,
  "ð©¾Į": 123726,
  "ĠJFrame": 50363,
  "allocator": 57631,
  "ĠtabBar": 76781,
  "ĠHindus": 81629,
  "Wow": 35881,
  "shm": 92137,
  "ÐµÑģÑĤ": 36177,
  "Ġpháº¥n": 142094,
  "ĠTOUR": 80301,
  "diag": 60214,
  "åĿ¥": 122282,
  "Ġevolve": 37580,
  "Brian": 50088,
  "jÄħcÄħ": 136413,
  ":[\"": 81262,
  "ĠWebElement": 39882,
  "ĠQLatin": 74800,
  "Ġlightweight": 29144,
  "Switch": 16837,
  "ÑıÐ¼": 129533,
  "ĠLED": 13113,
  "SocketAddress": 69455,
  "ĠQualified": 60306,
  "ools": 6178,
  "ĠAo": 49364,
  "Ġpillow": 42325,
  "ĠConstructor": 16786,
  "ĠĠĠĠĠĠĠĠĠĠĠĠĠĠĠĠ": 338,
  "ĠSailor": 97902,
  "åĪĨæĺİ": 109556,
  "Ġentering": 16262,
  "ĠvardÄ±": 136959,
  "å±Ģå±Ģéķ¿": 109196,
  "Ġranking": 23001,
  "Ġfollower": 48207,
  "Ġneat": 28485,
  "ĠBeaut": 14469,
  "Ġfluores": 50781,
  "è¶º": 120653,
  "Ġhomework": 28459,
  "(withIdentifier": 44311,
  "DSP": 90732,
  "è¯Ľ": 117092,
  "Ġcá»Ļng": 130700,
  "Ø¨Ø¹Ø«": 135500,
  "Ġcompany": 2813,
  "ĠÐ²ÑģÐµÐ¼": 130642,
  "ĠDunk": 68683,
  ".vehicle": 69601,
  "_O": 2232,
  "Ġeducating": 66705,
  "schlÃ¤": 143753,
  "riting": 12201,
  "Ġbacter": 17398,
  "ĠPG": 30044,
  "_KEYBOARD": 81164,
  "æ¡Īä¾ĭ": 102206,
  "Ġfaded": 53334,
  "Ġhebt": 88083,
  "ToSelector": 60081,
  "fine": 62057,
  "intestinal": 70458,
  "Ġning": 45507,
  "èĲİ": 103584,
  "ãģĮãģªãģĦ": 129535,
  "æĭ³å¤´": 114441,
  "YOU": 56389,
  "stant": 4706,
  "å¶Ļ": 121627,
  "(initial": 34331,
  "ĠHER": 15645,
  "Ġobtain": 6851,
  "Ø³ÙĬØ·Ø±": 133433,
  "ashboard": 7349,
  "×¤×ķ×ľ×Ļ×ĺ×Ļ": 132697,
  "Ġblessings": 55550,
  "×§×Ļ×©×ķ×¨": 134672,
  "lias": 71829,
  "eners": 18223,
  "Ġstre": 5412,
  "-Methods": 95490,
  "Ġmanus": 34337,
  "ð«ĳ": 122634,
  "arem": 68368,
  "ÐĻ": 130794,
  "AGEMENT": 61729,
  "ĠFormControl": 27677,
  "ĠwÅĤa": 81906,
  "ĠJava": 7943,
  "çľĭå¥½": 106303,
  "ISO": 24167,
  "ĠÃĸn": 133470,
  "ĠMichelle": 32026,
  "ĠLeft": 13727,
  "âŀ¤": 144599,
  "æ´": 43547,
  "Ġalter": 11596,
  "ĠOutlineInputBorder": 82537,
  "ng": 968,
  "_disp": 50692,
  "ç±Ģ": 122033,
  "Ġens": 4572,
  "ðŁ¤¸": 146911,
  "éĢĻ": 99672,
  "ĠcháºŃm": 138117,
  "Ġcushion": 44638,
  "wives": 58388,
  "ä¸įçĽ¸ä¿¡": 112465,
  "Ġgest": 12743,
  "Ġfamously": 50187,
  "Ġ]": 2279,
  "Ġ×©×ŀ": 126222,
  "Songs": 93156,
  "Ġ*/ĊĊĊ": 21668,
  "Ġìŀ": 16235,
  "ĠmÃ¼mkÃ¼n": 132816,
  "å¿ĥèĦıçĹħ": 114582,
  "arias": 47113,
  "åĬŀäºĭ": 102715,
  "åĽ½ãģ®": 135691,
  "ĠVelocity": 54434,
  "nicos": 84430,
  "æľ¬æľĪ": 112232,
  "sÄ±nÄ±n": 130182,
  "å±¥çº¦": 118820,
  "ophile": 67446,
  "Ġplanner": 49711,
  "ĠcurrentTime": 39199,
  "à¸Ńà¸²à¸£": 138774,
  "BackColor": 12075,
  "Party": 37361,
  "Ġoccult": 73826,
  "Military": 85326,
  "Ġinformation": 1995,
  "åĸ®": 101495,
  "Ġgáº¯ng": 137827,
  "enties": 57042,
  "ĠZend": 31117,
  "Ġsupp": 90035,
  "Ġpolluted": 94769,
  "Java": 15041,
  "ĠFACE": 58227,
  "ðŁĮ·": 145269,
  "Ġpreserve": 21129,
  "OfString": 66952,
  "ÙħØ¹Ø§ÙĦØ¬Ø©": 140410,
  "è¿Ļæ¬¾æ¸¸æĪı": 112746,
  "emailer": 88822,
  "Analysis": 26573,
  "ĠDemonstr": 85401,
  "ĠEquipment": 20236,
  "Ġcosplay": 88684,
  "Ġoverloaded": 74591,
  "éķ£": 121896,
  "ĉcontent": 27751,
  "QUOTE": 75543,
  "Ġspirits": 30639,
  "fs": 3848,
  "Ġmc": 19223,
  "ĠCompilation": 70081,
  "à¹ģà¸Ľà¸¥à¸ģ": 139311,
  "ĠRIGHT": 27477,
  "ë¹Ĺ": 144626,
  "à¸§à¸±à¸Ĵà¸Ļà¸ĺà¸£à¸£à¸¡": 139521,
  "ĠAllen": 20060,
  "ï¼ŀ": 82254,
  ".PI": 20385,
  "[arr": 77456,
  "_ind": 9122,
  "agogue": 70936,
  "âĮĽ": 146983,
  "ecast": 91438,
  "replacement": 83631,
  "oment": 12913,
  "ä¾ĭå¦Ĥ": 77557,
  "Ram": 63848,
  "Ġrin": 53721,
  "Ġroadway": 81111,
  "ãģĵãĤĮãģ¯": 129562,
  "ĠMitarbeiter": 96428,
  "Road": 56959,
  "ĠModifier": 45208,
  "Ġduty": 14189,
  ".openapi": 58820,
  "Ġpolitics": 11500,
  "ĠfÄ±rs": 136902,
  "Ġoptimizing": 73042,
  "_PO": 14169,
  "ìĦµ": 149765,
  "èĥĥåı£": 117909,
  "ĠsÃ³": 31090,
  "_gt": 37479,
  "ä¼ļè§īå¾Ĺ": 111096,
  "å¼ºæĤį": 117353,
  "Ġillness": 17125,
  "VALID": 10044,
  "ĠADV": 24540,
  "Ġthoughtful": 42666,
  "ĠAw": 17889,
  "ïº¶": 147115,
  "ĠFou": 94210,
  "_End": 49953,
  "ĉopts": 64734,
  "Ø¶Ø±Ø¨": 133288,
  "ĠÃ§alÄ±ÅŁmalar": 127722,
  "ĠmaÃ±ana": 95516,
  "åĢ§": 122662,
  "Ġminced": 93827,
  "_log": 5224,
  "Ġvbox": 85977,
  "(CC": 74071,
  "ãĥĥãĥī": 130083,
  "commands": 24270,
  "Ã§Ã£este": 139684,
  "çº³åħ¥": 104708,
  "æĺ¯éĿŀ": 110564,
  "ĠEventEmitter": 30004,
  "ðŁįĶ": 147067,
  "ĠcompletionHandler": 45780,
  "íķł": 47836,
  "âĢĻall": 91648,
  "sistÃªncia": 139225,
  "Ø¹Ø§ÙħÙĦ": 136164,
  "ĠgetColumn": 97240,
  "bak": 69822,
  "/math": 59705,
  "evity": 51679,
  "ĠProvided": 53874,
  "Ġpobl": 73575,
  "é±¿": 121004,
  "ê¦Ń": 147607,
  "Ġfallen": 20866,
  "ĠIPPROTO": 86938,
  "ĠGaut": 95054,
  "ĠRobert": 8397,
  "Ġattorney": 13747,
  "Ġendorse": 18970,
  "Ġ>::": 33813,
  "/file": 23903,
  "fcntl": 49676,
  "focus": 17414,
  "ĠProtected": 36995,
  "éĴº": 120396,
  "-door": 57090,
  "ruption": 14123,
  "ÙħÙĤØ§ÙĦØ§Øª": 141491,
  "Ġnack": 34343,
  "Ġtight": 10296,
  "_KP": 72849,
  "éĺ²æ±Ľ": 112608,
  "automation": 67080,
  "ĠnajbliÅ¼sz": 143247,
  "çĻį": 121935,
  "agenta": 47062,
  "Ġwalnut": 92629,
  ".Push": 34981,
  "Õ¦": 147175,
  "à¥ł": 150411,
  ".maximum": 58330,
  "Èĵ": 150046,
  "Ġib": 18668,
  "å·¥ä½ľç«Ļ": 114896,
  "Jets": 72617,
  "urations": 21449,
  "Ġ}\\": 51300,
  "oya": 46062,
  "Condition": 10547,
  "NSMutable": 18795,
  "_disk": 41687,
  "ĠĠĠĠĠĠĠĠĠĠĠĠĠĠĠĠĠĠĠĠĠĠĠĊ": 51124,
  "çķ¬": 123053,
  "PEC": 10943,
  "Ø®ØªÙĦÙģ": 125373,
  "Band": 33744,
  ".nt": 74264,
  "TU": 98582,
  "éĶ¡": 102813,
  ".selenium": 24281,
  "íĮ©": 144375,
  "Listen": 38714,
  ",V": 39954,
  "à¹Ħà¸¡à¹Īà¸£à¸¹à¹ī": 136628,
  "à¸§à¹Į": 127291,
  "ÑĦÐ¸ÐºÑģ": 141545,
  "ĉdistance": 98052,
  "_skip": 44830,
  "åĽŃåĮº": 101250,
  ".Inventory": 74260,
  "è¿Ŀç«ł": 114952,
  "ĠValidators": 24659,
  "à¸ĺà¸£à¸£à¸¡à¸Ķà¸²": 141105,
  "-have": 68484,
  "Ġ\".\");Ċ": 87260,
  "Ġgv": 54979,
  "elsing": 96588,
  "×©×Ķ": 124116,
  "lÄ±": 25611,
  "ĠTAG": 21494,
  "èĤº": 100887,
  "ocabulary": 43527,
  "toFixed": 36529,
  "Úĸ": 150389,
  "æĬĽå¼ĥ": 110853,
  "ĠaÅŁ": 125409,
  "_corpus": 94226,
  "beam": 53871,
  "alking": 29755,
  "Ġcred": 4187,
  "à¸ŀà¸£à¸°": 125038,
  "ĉns": 84041,
  "ĠEase": 94021,
  "Christopher": 73966,
  "OB": 20608,
  ".rotation": 23255,
  "Ġjaws": 81256,
  "è±ªè½¦": 118993,
  "Æ°a": 92358,
  "ĠVegas": 17596,
  "Ġ×©×ľ×Ľ×Ŀ": 129406,
  "idUser": 99100,
  "âĿħ": 146940,
  "Ġzij": 91914,
  "æĿ¥è®¿": 114290,
  "æĨ¬": 103832,
  "&);Ċ": 48656,
  "Ġpháº¡m": 130375,
  "abela": 37385,
  "Ø³ÙĨØ©": 137426,
  "ousse": 45551,
  "Closure": 53854,
  "ç¬¬ä¸īä»£": 117064,
  "orias": 67263,
  "mtime": 60976,
  "çĶ¾": 120008,
  ".azure": 70240,
  "èº«ä¸Ĭ": 103996,
  "ĠIID": 62121,
  "Registr": 86580,
  "_other": 30456,
  "Ġtej": 61980,
  "Ġtrop": 21267,
  "å®¶éķ·": 110173,
  "Ġavatar": 20701,
  "Ġpipelines": 57673,
  "ĠëĬĲ": 143862,
  "åĪĨè¾¨": 103685,
  "ä»«": 119568,
  "åı¶": 100027,
  "Ġfrag": 8343,
  "-init": 54773,
  "bÃ¼": 129578,
  "Ġmedals": 58982,
  ".row": 11547,
  "Ġsilicone": 52925,
  "(encoding": 85863,
  "çļĦçĶ»éĿ¢": 111097,
  "Ġ())Ċ": 58389,
  ".JWT": 99073,
  "HEN": 87921,
  "Ġoverload": 42184,
  "Ġillustrating": 92912,
  ".shapes": 98981,
  "<Application": 57428,
  "Ġfury": 63059,
  "ighborhood": 46185,
  "acid": 57056,
  "Ġtactics": 25342,
  "è´«åĽ°åľ°åĮº": 114626,
  "ÐµÐ½Ð´": 130352,
  "ðŁİĵ": 145844,
  "Ġnorth": 10200,
  "åĳ£": 119874,
  "_possible": 71244,
  "ÙĤØ±Ø¨": 131378,
  "æ¡ĳ": 102218,
  "_CARD": 45529,
  "ĠLoving": 89322,
  "¦¬": 56823,
  "ðĿĻ°": 151576,
  "Ġimpacted": 38928,
  "-generation": 42827,
  "ðĿĳľ": 145327,
  "ÙħØµØ±": 134734,
  "Ø³Ø±Ø·Ø§ÙĨ": 140395,
  ".load": 5104,
  "N": 45,
  "PRIMARY": 79774,
  "è¡ĮæĶ¿å®¡æī¹": 115813,
  "ĠBarbie": 83239,
  ".histogram": 94184,
  "Ġbypass": 30718,
  "ĉunion": 73924,
  "Ġbudgets": 41384,
  "Ġegt": 71067,
  ".setLayoutParams": 86399,
  "Ç»": 147085,
  "ĠDES": 12732,
  "çĨ¹": 119228,
  "Atl": 46250,
  "×Ľ×ŀ×ķ×ª": 134146,
  "Ġku": 36600,
  "ĠsÃ©curitÃ©": 76363,
  "ðŁķĳ": 148717,
  "×¤×ķ×¤×ķ×ľ×¨×Ļ": 143293,
  "ĠWARRANTIES": 7427,
  "ĠVern": 48745,
  "els": 2010,
  "ð¬¬©": 122320,
  "Ġcripp": 70008,
  "_RIGHT": 21199,
  "æĽ¾ç»ı": 103997,
  "Ġbasal": 79610,
  "åĲĳåīį": 106315,
  "():ĊĊ": 39974,
  "Ġoceans": 53180,
  "åĶ®": 99429,
  "usercontent": 42417,
  "ì¨Į": 144268,
  "culator": 20022,
  "ĠHornets": 95327,
  "ĠDM": 20192,
  "]='": 31765,
  "ðŁĻħ": 146386,
  "\"Yes": 57741,
  "Ġisso": 40805,
  "_guess": 54737,
  "endphp": 83662,
  "_PROPERTY": 26021,
  "æĲħæĭĮ": 109290,
  "-md": 4433,
  "_esc": 92196,
  "ĠNOTHING": 86081,
  "ĉpw": 92752,
  "ËĻ": 145283,
  ".size": 2486,
  "Ġget": 633,
  "ï»ľ": 144542,
  "Ġslik": 75224,
  "Ġcells": 7761,
  "ÐµÑĢÐ¸": 125340,
  "EIF": 12099,
  "%C": 66590,
  "ĠNSMutable": 21092,
  "_successful": 92951,
  "Ġ×Ĳ×ķ×ª×ķ": 128532,
  "Ġadvis": 9622,
  "ĠWebcam": 46573,
  "à¸¢à¸·à¸Ļ": 127945,
  "ä¸ľè·¯": 114162,
  "Indent": 42729,
  "dados": 42589,
  "ĠFargo": 57650,
  "ĠHuawei": 50607,
  "é©±åĬ¨": 102474,
  "ovation": 22874,
  "Ġmanagers": 19680,
  "ÙħØ¤Ø´Ø±": 133957,
  "Ġvelit": 71548,
  ".heap": 77147,
  ".reset": 13857,
  "ĠWinter": 20101,
  "iParam": 69908,
  ".Remove": 13270,
  "Ġcertify": 92230,
  ".go": 18002,
  "<Message": 52160,
  "Ġsauna": 46858,
  "åĹī": 121177,
  "ĠBarcelona": 26937,
  "Ġabolish": 89276,
  "ĠdonnÃ©": 136383,
  ".enqueue": 47468,
  "ĠNIGHT": 75031,
  "Ġebooks": 87902,
  "æĥĬåĸľ": 106087,
  "ĠJeb": 70096,
  "_home": 21653,
  "Responder": 30884,
  "Ġfollowers": 20119,
  "ĠÙĬØŃØªØ§Ø¬": 140326,
  "ãģ¯ä½ķ": 136045,
  "ĠUbisoft": 86897,
  "Ġtherm": 29845,
  "Ġstrdup": 48819,
  "Ġnghá»ģ": 132197,
  "åįļå½©": 111713,
  "Oh": 11908,
  "Ġ×ŀ×Ĺ×ĵ×©": 136416,
  "Ð¿ÑĢÐ¾Ð¼ÑĭÑĪÐ»ÐµÐ½": 138621,
  "Ġutter": 21532,
  "à¤¾à¤": 31411,
  "ĠDBG": 37392,
  "×¦×Ļ×Ĵ": 132732,
  "Ġdid": 1521,
  "_RESET": 27028,
  "igt": 17917,
  "aspect": 57058,
  "ĠSalvador": 48359,
  "Ġeben": 50697,
  "Ġredundant": 47732,
  "Ġbb": 16520,
  "gree": 22490,
  "çļ®": 99888,
  ".bl": 10404,
  "Ġappreciated": 25808,
  "(Math": 14426,
  "Ġjoints": 34258,
  "Ġdubious": 62089,
  "Ġdiligently": 90605,
  "Ġsquares": 31340,
  "èı©èĲ¨": 107532,
  "Ġclassifier": 33365,
  "åĪ¶è®¢": 110745,
  "ì´ī": 140111,
  "Ġsecuring": 40477,
  "@RestController": 41552,
  "zf": 69394,
  "WL": 61139,
  "/global": 38984,
  "ĠreprÃ©sente": 140786,
  "åī½": 121157,
  "ï®§": 146541,
  "?âĢĿ": 12390,
  "Ġhardships": 95222,
  "Ġwlan": 78353,
  ".API": 24922,
  "iator": 36122,
  "/w": 6324,
  "Meet": 40551,
  "-handle": 88407,
  "ç§ĳå¹»": 110000,
  "],[-": 94632,
  "Ġfirstname": 48193,
  "ĠÐºÐ¾Ð½ÑĤ": 76985,
  "dehy": 79560,
  "shirt": 48372,
  "CHO": 30498,
  "íķĺì§Ģ": 87425,
  ".variable": 45221,
  "ĠUFC": 27295,
  "èŀħ": 121763,
  "Ġinade": 39106,
  "xbd": 33564,
  "è¯Ĭæ²»": 118476,
  "ĠÄĲiá»ĩn": 135601,
  "ç¹ĩ": 121915,
  "_translate": 66381,
  "èĬĻèĵī": 116805,
  "Gamma": 40457,
  "Ġ×Ľ×Ł": 128996,
  "prints": 25738,
  "ĠDodgers": 55467,
  "æĶ¿åºľéĩĩè´Ń": 113365,
  "Ġrings": 24544,
  "ĠMom": 22180,
  "Ġplantation": 81952,
  "()){čĊ": 42519,
  "Ġoften": 3545,
  "ä¿¡æģ¯": 27369,
  "ĠTwist": 73374,
  "çľģæĶ¿åºľ": 106892,
  "íľł": 144977,
  "IDDEN": 38289,
  "Ġfet": 16467,
  "á©ĥ": 150576,
  "Ġcharger": 44569,
  "Produto": 51150,
  "BBC": 66755,
  "Ġê°ľìĿ¸ìłķë³´": 130096,
  "ĠÄĲá»Ļ": 131283,
  "(character": 49901,
  "Ø±Ø§ØªÙĬØ¬": 128091,
  "ĠÙĦÙĦ": 125006,
  "Lots": 80555,
  "')){Ċ": 33949,
  "å¾ĪæŃ£å¸¸": 117357,
  "Jet": 35641,
  ")(__": 74699,
  "_actor": 54818,
  "Ã³b": 51109,
  "èĳĹ": 99610,
  "åĪĴç®Ĺ": 114543,
  "Ġwann": 54505,
  "Ġlabeled": 29829,
  "_ops": 21959,
  "MHz": 37492,
  "Attribute": 3907,
  "ĠRoy": 11038,
  "[pos": 21643,
  "ORITY": 29967,
  "Ġ----------Ċ": 30323,
  "ØªØ¨": 125777,
  "ĠĠĠĠĠĠĠĠĠĠĠĠĠĠĠĠĠĠĠĠĠĠĠĠĠĠĠĠĠĠĠĠĠĠĠĠĠĠĠĠĠĠĠĠĠĠĠĠĠĠĠĠĠĠĠĠĠĠ": 32678,
  "ĠØªØ±Ø§ÙħØ¨": 137986,
  "×Ľ×ľ×Ľ×ľ×Ļ": 133000,
  "ick": 865,
  "Ġunwitting": 94019,
  "_ad": 10027,
  "cea": 72938,
  "ĠHIGH": 37617,
  "âĺ¡": 149050,
  "å£": 44726,
  "ĠGP": 23690,
  "Ġlocalized": 43489,
  "\\Core": 20899,
  "Ġoffices": 19126,
  "Ġdziew": 83504,
  "ç»Ļä»ĸä»¬": 108603,
  "_stream": 12673,
  "áŀł": 148449,
  "InMillis": 78634,
  "();\"": 69099,
  "[]}": 66277,
  "verture": 64830,
  "oose": 13752,
  "plied": 3440,
  "awks": 29278,
  "Uuid": 38431,
  "veis": 43699,
  "-end": 13068,
  "yun": 42420,
  "Ġ],": 10654,
  "Ġot": 14147,
  "_cm": 43619,
  "Ġdives": 93421,
  "prowad": 128132,
  "entr": 23745,
  "ä»ĩæģ¨": 117828,
  "æ¯Ķè¾ĥå¥½": 106784,
  "ĉselect": 38010,
  "é»ĳæļĹ": 105913,
  "Ġorally": 97022,
  "ĠSurge": 56157,
  "Ġtiá»ģn": 128515,
  "Ã©es": 13700,
  "ĠTur": 8705,
  "ĠFirebase": 19683,
  "Ġ(čĊ": 25315,
  "/goto": 92020,
  "Ġcessation": 82360,
  "Ê¯": 149423,
  "Perhaps": 31476,
  "çļĦæĢĿæĥ³": 105429,
  "ĠNOTIFY": 83102,
  "Fun": 30855,
  "ĠBart": 28527,
  "ĠnÃ¦r": 56697,
  "å¥½å¤ļ": 102871,
  "ĠCheckout": 56735,
  "Ġsubdivisions": 91445,
  "getPost": 64997,
  ".graph": 10763,
  "åħĦ": 100788,
  "çī¹æĸ¯æĭī": 108096,
  "ĉpanel": 44952,
  "div": 611,
  "Ġsynt": 83187,
  "Ġracially": 74804,
  "Ġgraffiti": 64843,
  "_bottom": 25473,
  "æĦıä¹ī": 100240,
  "_LAST": 36794,
  "ĠmÃ©dico": 132744,
  "olver": 7921,
  "+]": 55905,
  "ëĬ": 15127,
  "Ø§Ø¨Øª": 130741,
  "_;": 23182,
  "ãĥĸãĥ«": 127011,
  ".Services": 20089,
  "ourcem": 96831,
  "needle": 59519,
  "ĠJScrollPane": 81905,
  "CRE": 9427,
  "_Part": 97938,
  "ĠØ§ÙĨ": 128295,
  "Firstname": 93026,
  "argins": 81839,
  "âľľ": 147100,
  "ĠMutual": 74042,
  "Ġgent": 15886,
  "getDb": 95158,
  "è¢«è®¤ä¸ºæĺ¯": 114533,
  "Binary": 21338,
  "íĳ": 124744,
  "ANDROID": 72997,
  "Ġhuis": 67609,
  "ald": 4747,
  "×ŀ×ķ×¡×ĵ": 134544,
  "\\Extension": 51928,
  "ÑģÑĤÐ°Ð½Ð°Ð²Ð»Ð¸": 135716,
  "ĠBJ": 86499,
  "Ġcamps": 28035,
  "ÙħØ¯ÙĬØ±": 143426,
  "Ġpartially": 25244,
  "ĠCoins": 61776,
  "nosti": 73852,
  ".Cos": 66255,
  "ä¾§éĩį": 114936,
  "ĠPatton": 95122,
  "Ġdevised": 68020,
  "ĠFl": 2988,
  "ç§¯ç´¯äºĨ": 113380,
  "à¸Ĺà¸¢": 124488,
  "Cls": 46343,
  "æ¶²": 100058,
  "issenschaft": 79748,
  "Ġnausea": 60780,
  "'?": 69990,
  "wealth": 30533,
  "orate": 37895,
  "Ġresultado": 26192,
  "ë¦¬ëĬĶ": 132920,
  ".nama": 77284,
  "é²³": 121801,
  "Ġsalad": 32466,
  "_print": 10064,
  "æŃ¦": 99669,
  "ETweet": 94564,
  "ë³ĳ": 127148,
  "Ġendian": 64688,
  "ðŁĵĲ": 147926,
  "ðĿĸ": 123957,
  "ïŃ´": 149828,
  "filter": 5315,
  "çĺ¦": 102372,
  "liable": 50330,
  "Ġ//////////////////////////////////////////////////////////////////////////": 71508,
  "Domin": 71541,
  "Ġletters": 11931,
  "<path": 89211,
  "mart": 33472,
  "_pet": 75963,
  "DataStream": 88062,
  "ä¸ºä¸Ģä½ĵçļĦ": 109279,
  "_already": 80772,
  ".ie": 58866,
  "ĠMinds": 60310,
  "fullName": 67158,
  "ĠAbed": 98264,
  "ĠÄĲÆ°á»Ŀng": 136002,
  "×ª×§": 124410,
  "Ġthá»¥": 135364,
  "ometer": 20408,
  "à¸Ļà¸²à¸¡": 137182,
  "ãĥ¬ãĥ¼": 129278,
  "éĤ£æĹ¶åĢĻ": 106457,
  "à¸«à¸§à¸¢": 136470,
  "closing": 85777,
  "ĠPLA": 96966,
  "[r": 16131,
  "ï¯¤": 149137,
  "aser": 12080,
  "Ġnearly": 7009,
  "Ġc": 272,
  "Ġmell": 53348,
  "åĸĬ": 104611,
  ">}</": 77935,
  "âĪı": 145992,
  "_job": 20298,
  "Ø¬ÙĬ": 129119,
  "ĠMagick": 87154,
  "èģĶæĥ³": 107499,
  "Ġdiver": 36341,
  "Ġdeix": 64756,
  "æ»¥": 103691,
  "ĠwÃ¤h": 52367,
  "ĠPerson": 7357,
  "çº¢æ¥¼æ¢¦": 117805,
  "ĠNSArray": 25504,
  "çłĶ": 99233,
  "ĠcomponentDid": 23807,
  "=back": 92372,
  "ĠComposite": 40639,
  "Ġsword": 20214,
  "à¸ģà¹ĩà¸ķà¹īà¸Ńà¸ĩ": 135820,
  "_Cmd": 98253,
  "æ±¹": 119323,
  "ä¼¥": 119622,
  "/platform": 27294,
  "ifr": 96716,
  "Ġapplied": 9251,
  "æĽ¾åľ¨": 107709,
  "ç¸±": 119284,
  "/single": 96562,
  "ä¸ĵäºº": 110736,
  "UMP": 23730,
  ".save": 5681,
  "ĠÐ§Ð°": 134456,
  "íĽħ": 145686,
  "fiber": 82945,
  "Ð¾ÑĢÐ¾": 125234,
  ".Getter": 64668,
  "analysis": 34484,
  "ynch": 68481,
  ".overflow": 98350,
  "giene": 42212,
  "Ġdefended": 34744,
  "ÐºÐ»Ð¾Ð½": 134627,
  "Ġháº¡n": 129572,
  "ĠWilhelm": 92437,
  "-split": 78412,
  "Ġsprinkle": 84847,
  "ĉprev": 50728,
  "Ġpretend": 34740,
  "Ġburgl": 59171,
  "âĪĤ": 145371,
  "Ġatan": 57846,
  "owan": 80231,
  "ç¬¬ä¸ĢçĻ¾": 117328,
  "tight": 74182,
  "Ø¨Ø§ÙĨ": 130574,
  "ETIME": 44618,
  "Ġmuscle": 15747,
  "åĪ¶æĪĲ": 108711,
  "itlement": 45337,
  "æĬľãģĳ": 134726,
  "ÑĢÐ¸ÑĤÐ¾ÑĢ": 127711,
  "Ġaba": 74791,
  "uiltin": 25628,
  "@api": 90829,
  "ĠÐ¾Ð´ÐµÐ¶": 137073,
  "ĠHttpStatusCode": 49339,
  "ç¿°": 103245,
  "è¿Ļä¸ª": 99487,
  "Ġfinden": 35103,
  "ĠLegends": 41886,
  "$new": 45884,
  "Ġserious": 6001,
  "ĠHz": 36092,
  "_brightness": 91028,
  "Ġhistoric": 18035,
  "Ġsegmentation": 59752,
  "å®ĺå®£": 118360,
  "ÄħÅ¼": 75830,
  ".cli": 56618,
  "aur": 4110,
  ".chain": 52041,
  "portrait": 95641,
  "à¸ľà¸¹à¹īà¸Ľà¹Īà¸§à¸¢": 140259,
  "Ġuphol": 69204,
  "Ġbool": 1807,
  "ï»¥": 144614,
  "Ġgrupos": 72924,
  "ĉgo": 30680,
  "Ġquartz": 51155,
  "ÅĤÄħcz": 128766,
  "obbies": 40312,
  "StateMachine": 94666,
  "âĪĥ": 149026,
  "IXEL": 39787,
  "_Enable": 65216,
  "merged": 40354,
  "ĠRequestOptions": 82349,
  "ðĿļĳ": 151358,
  "å°ıåŃ¦çĶŁ": 111029,
  "ĉstore": 57279,
  "(resp": 20267,
  "ĠLuca": 83178,
  "ĉast": 88836,
  "ĠÙĪ": 37524,
  "wat": 58047,
  "Ġafl": 98057,
  "{ĊĊ": 4257,
  "ĠMcCain": 35535,
  "shows": 59456,
  "Ġascend": 75312,
  "åĨĴçĿĢ": 118008,
  ".salary": 93486,
  "DNS": 61088,
  "ĠBÃłi": 130590,
  "ĠDIM": 50859,
  "è¿ĳæĹ¥": 104214,
  "coration": 26452,
  "fin": 5472,
  "ĠâĢķ": 50653,
  "ĠÐ´Ð¾": 56197,
  "à¹ģà¸®": 138777,
  "_rotation": 44813,
  "Ġëĵ±": 77002,
  "antd": 36881,
  "ÐµÑĢ": 7599,
  "ĠVT": 32951,
  ">>Ċ": 39071,
  "vel": 889,
  "=message": 87129,
  "Ġbrowsing": 31321,
  "localStorage": 43453,
  "CLUD": 10738,
  "Ġma": 7491,
  "è¨Ĭ": 101572,
  "à¸Ĺà¸Ļ": 136155,
  "ĉac": 81200,
  "save": 6628,
  "ĠModel": 4903,
  "_AX": 36817,
  "ì©Ĳ": 145390,
  "edic": 33283,
  "ðĿķĻ": 149885,
  "åĽ½æĥħ": 114371,
  "Ġdarf": 87231,
  "ç¿»èº«": 114977,
  "Ġleven": 92203,
  "xlsx": 65245,
  "Ġcraft": 10770,
  "ĉrb": 85589,
  "MZ": 96988,
  "é¢Ĩå¯¼çıŃåŃĲ": 104452,
  "Ġpickup": 29586,
  "Ġhitters": 80033,
  "Ġconfidently": 76976,
  "offers": 71879,
  "Ġ\"\"Ċ": 8389,
  "Ġoben": 89005,
  "éŁ§æĢ§": 115626,
  "ĠbÃłi": 128601,
  ".Token": 32277,
  "Ġtekn": 80026,
  "_CENTER": 34555,
  "éķĵ": 121635,
  "ãĥĹãĥ©": 127508,
  "')->": 4919,
  "åıĹä¼Ĺ": 112138,
  "-enable": 64211,
  "_POLL": 76820,
  ".hardware": 66981,
  "uckets": 38551,
  "ãĤ»ãĥĥãĤ¯ãĤ¹": 137330,
  "çĶŁçĹħ": 109281,
  "ĠØ§ÙĦØ¨Ø·": 132624,
  "à¹Ĥà¸¢": 125863,
  "ä¸ĭäºĨ": 104853,
  "ĠSeq": 23744,
  "ëĸ": 123986,
  "expo": 71131,
  "à´³": 146477,
  "á»ĭnh": 125438,
  "à¸§à¸´à¸ĺà¸µ": 126671,
  "_LOG": 8419,
  "Ġfluid": 15590,
  "ĠreturnType": 84509,
  "åĻ¨": 31548,
  "ĠIOC": 96903,
  "Ġcooldown": 43250,
  "çļĦä¸Ģä¸ª": 104111,
  "klÃ¤": 63730,
  "Ġitalian": 27948,
  "ogui": 90470,
  "prestashop": 91292,
  "=bool": 89112,
  ".MAIN": 98559,
  "CHandle": 83153,
  "ãĤĭãģ®ãģĮ": 134742,
  "ë¶Ģ": 63089,
  "manager": 13297,
  "ĠuwagÄĻ": 134908,
  "ÑĢÐ¾ÑģÐ»": 137360,
  "Ġsscanf": 61913,
  "oundary": 72466,
  "Ð½Ð¸Ñı": 128614,
  "fried": 97525,
  "æ¸´": 102943,
  "ê¹Ĭ": 141680,
  "ä½ĵä¼ļ": 101589,
  "âĹĩ": 144053,
  "Ġromantic": 23467,
  "ĠManage": 42650,
  "íİŃ": 145617,
  "umont": 89817,
  "Ġsummon": 27545,
  "ëĬĲëĥĲ": 139036,
  "Ġcenturies": 23631,
  "Ġsprite": 17051,
  "geist": 78400,
  "Ġupstairs": 48907,
  "Ġdw": 13835,
  "ä»ĸä»¬çļĦ": 104056,
  "ĠjeÅĽli": 130541,
  "Ġhelpless": 62528,
  "ĠLÃºc": 138933,
  "Ġbowls": 59980,
  "è¹¼": 122021,
  "_same": 33574,
  "ĠmÃªme": 26486,
  "ĠtÃªm": 98860,
  "Ġngh": 124414,
  "æ¡¨": 119285,
  "ÄĻk": 79884,
  "Ġconventions": 44493,
  ";}čĊ": 39528,
  "Ġsplice": 88290,
  "Ø³Ø£ÙĦ": 134363,
  "ĠSticky": 92643,
  "ĠÏĢ": 51745,
  "ìĹĪ": 125199,
  "cola": 55452,
  "Ġinvestigations": 25883,
  ".split": 5289,
  "bcd": 91490,
  ".setEditable": 71553,
  "-awesome": 28524,
  "Stub": 33838,
  "ç»¤": 122737,
  "è§ĴèĲ½": 107877,
  "ðŁĵ±": 145534,
  "Ġfamiliarity": 70440,
  "(strategy": 38691,
  "ĠChain": 28525,
  "AAA": 50107,
  "ĠInhal": 91912,
  "åĸ¾": 121064,
  "èįĨ": 103171,
  "çĻĥ": 121818,
  "Android": 21831,
  "Cole": 98180,
  "ĠíĬ¹": 127820,
  "/ros": 83846,
  "paration": 35135,
  "ãģĳãĤĭ": 124945,
  "åĨ³èĥľ": 113674,
  "_OTHER": 56038,
  ".writer": 30832,
  "ä¸ĢæĿ¡é¾Ļ": 115406,
  "çĪ¶è¦ª": 115170,
  "ĲèĹı": 68172,
  "producer": 58912,
  "ĠSage": 53284,
  ":a": 43833,
  "åħ»æĪĲ": 107428,
  "Ġshow": 1473,
  "Ġarena": 24902,
  "(UUID": 65664,
  "åħ·æľīä¸Ģå®ļ": 111578,
  "åŃĻ": 100685,
  "æ¸Ķæ°ĳ": 116613,
  "idor": 28756,
  "ä¹ĭåīį": 101056,
  "Ġmalicious": 38170,
  "fft": 29175,
  "Ġhonoured": 89733,
  "âļ¬": 147891,
  "ĠStandards": 34553,
  "ĠPeggy": 85552,
  "ëĭĽ": 144960,
  "ĠUmb": 65959,
  "cover": 3688,
  "çĤ¹æ»´": 118354,
  "ãĤĤãĤĬ": 127975,
  "-formed": 94877,
  "ãģªãĤĵãģ§": 140572,
  "Ġbáº£n": 128450,
  "Ġendemic": 94913,
  "å¹²çĩ¥": 106203,
  "Ġavons": 55938,
  "Ġaccompanying": 23534,
  "ãģĻãģ§": 137997,
  "uits": 11797,
  "Ġgiant": 14538,
  "ðŁĶ³": 149933,
  "Ġznajdu": 139698,
  "ØµØ¯": 124937,
  "Ġnames": 5036,
  "ĠHTMLElement": 43899,
  "_create": 8657,
  "è°ĳ": 120801,
  "Ġuterus": 84556,
  "ĠInstallation": 39145,
  "Ġupsetting": 89969,
  "ĠEncyclopedia": 67098,
  "ãĤ¹ãĥĿ": 127892,
  "à¨Ĭ": 150414,
  "âĶ¥": 150688,
  ":length": 29296,
  "raft": 2944,
  "æ±": 21280,
  "åħĭæľį": 106268,
  "ëĹį": 151434,
  "ç»Ĳ": 122387,
  "ĠhÃ¤tte": 95035,
  "éŃĤ": 101291,
  "æĮ¯åĬ¨": 113587,
  "Ġfirebase": 20424,
  "ĠVB": 63439,
  "_LOADED": 89917,
  "ĉWebElement": 72256,
  "à¡Ĵ": 147675,
  "å§¶": 122550,
  "åĬ³": 99697,
  "è¿ĩçļĦ": 105565,
  "Ġdocker": 26588,
  "ĠKosten": 40866,
  "Ġenums": 70717,
  "nel": 8138,
  "æ·ĺå®Ŀ": 105052,
  "Ġmagg": 87899,
  "çľĭçĤ¹": 110973,
  "Ġ×ĵ×Ļ": 128593,
  ".gstatic": 69260,
  "ĠHyderabad": 68447,
  "hani": 86811,
  "ðŁİĥ": 146660,
  "ç°ĸ": 121906,
  "ĠÃ¶rgÃ¼t": 136494,
  ".assertNotNull": 38722,
  "æĪĳä»¬åľ¨": 104952,
  "Ġmir": 8652,
  "æĶ¯ä»ĺå®Ŀ": 107851,
  "_completion": 60164,
  "åħ¨çĲĥæľĢå¤§": 115026,
  "ĠChronicle": 41059,
  "/create": 25577,
  "Ġcontributed": 19590,
  "ĠØ°ÙĦÙĥ": 128349,
  "Ġkem": 67431,
  "æİ¨è¿Ľ": 99664,
  "ëł·": 144684,
  "ĠStellar": 94542,
  "-offsetof": 54187,
  "ÙĦØ¹Ø¨": 130135,
  ",'\"": 48882,
  "ĠHigh": 5124,
  "qid": 88587,
  "ĠÐ¿ÑĢÐ¾ÐµÐºÑĤ": 129708,
  "Ġê°ĸ": 143143,
  "µ¬": 44706,
  "itates": 81729,
  "ĠBooker": 64995,
  "Ġiq": 91459,
  "ĠDonetsk": 97351,
  "ĠÐºÐ¾ÑĤÐ¾ÑĢÑĭÑħ": 130455,
  "è®°è½½": 105636,
  "swer": 3559,
  "Ġaffiliate": 21597,
  "ĠMoÅ¼e": 133590,
  "Ġ'../../../": 18554,
  "åºĵéĩĮ": 115223,
  "ches": 8528,
  "stÃ¥": 96490,
  "ĠUICollectionView": 28577,
  "(review": 83312,
  "Ġenhancement": 26788,
  "ä¼ļè®®": 99903,
  ",class": 84704,
  "ç½¢": 102795,
  "à®ĥ": 150427,
  "æģ": 20885,
  "################################": 5026,
  "Ġadjusts": 83331,
  "è½°": 103086,
  "gesch": 45061,
  "é¥®åĵģ": 113864,
  "ĠSCM": 68548,
  "Ġ%@\",": 31452,
  "Ġcomando": 49868,
  "Ġlifetime": 19031,
  "Ġarrivals": 69047,
  "Ġ×Ķ×Ĺ×ľ": 129063,
  "Ġincapable": 57171,
  "-log": 46332,
  "çĻ½çĻ½": 114779,
  "ĠUCS": 79246,
  "ĠRein": 46069,
  "Ġdisadv": 29847,
  "ĠaddCriterion": 18724,
  ".z": 3938,
  "ð¥": 101024,
  "ulers": 26800,
  "æľªçŁ¥": 109259,
  "çĢ±": 123751,
  "combo": 61492,
  "Ġrefugees": 21728,
  "insky": 51441,
  "×ĳ×ķ×ª": 125504,
  ".ACCESS": 65991,
  "Ġswo": 33127,
  "æĮ£æīİ": 110197,
  ".yang": 80477,
  "ĠÅ": 25917,
  "ĠGordon": 25867,
  "max": 2810,
  "rawid": 139722,
  "æľºçĶµ": 108837,
  ".isSuccess": 88158,
  "ĠMohammad": 64452,
  "ĠIPL": 76255,
  "-colored": 57722,
  "åĴĲ": 103735,
  "Ô¡": 149504,
  "å¤ľéĹ´": 107884,
  "ĠNGX": 89105,
  "[i": 989,
  "_sum": 10160,
  "ð¬ĩ¹": 122882,
  "ĠPIE": 79455,
  "yard": 17428,
  "æ²¥éĿĴ": 114193,
  ".List": 5814,
  "Ó±": 150376,
  "Ġpharmacies": 76505,
  "Undefined": 30571,
  ".todo": 55375,
  "×Ļ×ľ×ķ×ª": 133613,
  "ÐºÐ»ÑİÑĩÐµÐ½Ð¸Ðµ": 142342,
  "ÑĢÐ°Ð²": 26988,
  "-select": 20458,
  "Pocket": 63374,
  "×Ľ": 123794,
  "åİŁæĸĻ": 104697,
  "ä¸ĢåŃĹ": 113467,
  "éľŀ": 104897,
  "ÙħØ®Ø§Ø·Ø±": 137861,
  "ĠKG": 70087,
  "_penalty": 82286,
  "_recall": 90311,
  "ðŁĨĹ": 146767,
  "æ¥½ãģĹ": 126679,
  "á½Ķ": 147882,
  "ĠSche": 53672,
  "ry": 884,
  "Ġ×Ļ×ķ×¨": 143328,
  "[])Ċ": 24377,
  "Ġquel": 25025,
  "_hand": 23194,
  "æĭĽæĶ¶": 114485,
  "_forms": 64282,
  "()),Ċ": 14702,
  "cular": 21366,
  "É±": 147180,
  "Ġstrang": 46205,
  "FB": 16208,
  "Ġinterv": 85853,
  "ãĤ«ãĥ¼ãĥīãĥŃãĥ¼ãĥ³": 143330,
  "_agent": 25730,
  "Ġgeg": 97341,
  "Ware": 71770,
  ".bumptech": 62830,
  "ÙĪØ¨": 124495,
  "Ġsympathetic": 52364,
  "posts": 12664,
  "å´©": 103141,
  "ĠIRS": 33383,
  "ì±¨": 148263,
  "è°Į": 120798,
  "åĬ¡": 31952,
  "çļĦè¡Įä¸º": 104796,
  "fol": 8400,
  "åĩºèī²": 103163,
  "ä¸ŃåĽ½äººæ°ĳ": 107087,
  "ĠPROVIDED": 16525,
  "Ġ×ľ×Ļ×ľ×ĵ×Ļ×Ŀ": 135884,
  "Ġ})čĊčĊ": 91276,
  "atha": 65726,
  "Ġprocessor": 17654,
  "ĠdziÅĽ": 135481,
  "Msg": 6611,
  "ĠmoÅ¼na": 62573,
  "ĠWall": 9736,
  "ĠBYU": 92354,
  "ÙĤØµ": 125669,
  "<>(\"": 89039,
  "_uuid": 25540,
  "ĠÐ¿ÐµÑĢÐ²ÑĭÐ¹": 135756,
  "Ġhuman": 3738,
  "Ġelective": 97490,
  "íĵŃ": 151493,
  "Chef": 93903,
  "ĠPars": 52711,
  "Ġremot": 35793,
  "Ġbee": 37228,
  "çĮ·": 121287,
  "Ġpipes": 31175,
  "Ġklass": 37955,
  "à¤ĸ": 146800,
  "Dao": 12197,
  "Ġtowns": 24824,
  "_don": 73974,
  "Ġocur": 91220,
  "ĠMinuten": 80624,
  "æ¹Ľæ±Ł": 112362,
  "æľīéĴĪå¯¹æĢ§": 110343,
  "Ã§ek": 124726,
  "Ġplc": 96462,
  "à¹Ģà¸Ħà¸£à¸Ķà¸´à¸ķ": 139892,
  "_performance": 84833,
  "ITICAL": 46817,
  "éĺĳ": 121033,
  ")\">Ċ": 61525,
  "ðĿĳ¹": 150076,
  "è²¨": 107555,
  ".neighbors": 83882,
  "è§ĩ": 120095,
  "_car": 26616,
  "/ext": 81143,
  "Ġsquarely": 94463,
  "éķµ": 122100,
  "ENV": 30360,
  "Â¯Â¯": 38195,
  "Ġveterinarian": 81240,
  "ĠChess": 47387,
  "Ġga": 13510,
  "Ġjeden": 53165,
  "æ¿ĢåĬ±": 104774,
  "Ġ)čĊ": 8616,
  "Ġcreators": 33799,
  "NOW": 43929,
  "Ġrenown": 33717,
  "×Ĺ×¡×¨": 132279,
  "Ġ\\Ċ": 3044,
  "subpackage": 42837,
  "Ġbillboard": 85206,
  "ViewHolder": 20253,
  "setEnabled": 37109,
  "ĠSteering": 78721,
  "(bucket": 58934,
  "Ġbourgeois": 52316,
  "ĠstrokeLine": 77829,
  "ðŁİĩ": 147723,
  "çļĦäºĭ": 104140,
  "á»ĵ": 70680,
  "stell": 41137,
  "ÙħØ«Ø§ÙĦ": 131696,
  "ë¶Ī": 134836,
  "ĠØ§ÙĦØ¹Ø§ÙĦÙħÙĬØ©": 132895,
  "ĠThem": 47938,
  "ç»¿èī²éĢļéģĵ": 116359,
  ".len": 19406,
  ".index": 5154,
  "_PREF": 66372,
  "_female": 97827,
  "bounded": 65686,
  "ÙģÙĨØ§Ø¯": 135317,
  ".TableName": 86783,
  "ro": 299,
  "Ø¹Ø´": 133227,
  "ĠClubs": 69032,
  "Ġ*/,": 36572,
  "Ġ@_;ĊĊ": 61163,
  "Ġciphertext": 69789,
  "velopment": 75831,
  "ìļº": 149780,
  "ä¸Ģçŀ¬éĹ´": 112141,
  "erten": 50958,
  "ÐµÐ½ÑĤÐ°": 87731,
  "Games": 35807,
  "rought": 6344,
  "èĪħ": 101849,
  "ugal": 44184,
  "åİ»å¹´åĲĮæľŁ": 110629,
  "ìķĶ": 135350,
  ":c": 48031,
  "known": 5278,
  "Ġ|>": 58721,
  "ĠFeb": 13498,
  "ÑıÑĤÑĮ": 93875,
  "Ġdismissal": 58223,
  "<I": 13332,
  "oppable": 77539,
  "grunt": 61224,
  "ILogger": 82252,
  "ĠSpecies": 50467,
  "Ġquizzes": 88223,
  "Ġ*/)": 89855,
  "ĠEquation": 84670,
  "angement": 56633,
  "ention": 2939,
  "Ġrosa": 95244,
  "_VF": 98842,
  "&lt": 32480,
  "(::": 38732,
  "Ġacab": 66062,
  "Ġ?',": 57950,
  "Ð»ÑģÑı": 128929,
  "âĢĶwho": 83841,
  "dance": 98875,
  "ave": 523,
  "ĠLuther": 35202,
  ".glide": 60106,
  "ĠFriend": 11587,
  "lopedia": 42373,
  "_DEBUG": 11139,
  "classed": 96737,
  "Ġullam": 77008,
  "ĠBurg": 40009,
  "Ð½ÐµÐ³Ð¾": 131809,
  "ĠPGA": 79785,
  "','\"+": 94015,
  "éļıæīĭ": 113514,
  "ä»İä¸ļèĢħ": 115504,
  "Ġcyt": 78809,
  "ĠExplore": 44052,
  "ĠÐ²Ð»Ð°Ð´": 143319,
  ".Operator": 85546,
  "Ġ[];ĊĊ": 15436,
  "æ¶Īè´¹": 100030,
  "ÙĨÙħ": 132646,
  "ĠÐ´Ð°Ð½Ð½ÑĭÑħ": 52276,
  "Ġconcert": 20830,
  "×Ľ×ĳ×ĵ": 134815,
  "Ġbakery": 65144,
  "ÐºÑĢÐ°Ñģ": 130086,
  ".'Ċ": 23421,
  "ĠAvalanche": 98707,
  "onz": 27045,
  "Ġedible": 66640,
  "æ°Ĺè»½ãģ«": 140358,
  "/downloads": 89185,
  "âĢĶare": 82772,
  "Ġá»ķn": 133713,
  "çĶµè§Ĩåī§": 105720,
  "ãģ©ãģĵ": 130028,
  "åĮĢ": 102912,
  "-next": 22304,
  "ĠCNBC": 72259,
  "_PLATFORM": 43219,
  "Ġrepar": 75926,
  "Ġmapa": 68110,
  "ManyToOne": 43094,
  "éĤ¢åı°": 118875,
  "itious": 64695,
  "Assignable": 59029,
  "åķĸ": 120672,
  "ĠVoices": 82326,
  "_Db": 60968,
  "Ġneuroscience": 91948,
  "ì¡±": 129704,
  "_AT": 8667,
  "âĩĻ": 150145,
  "Ġanswers": 11253,
  "Ġcrest": 71924,
  "ËĤ": 146001,
  "Sensor": 30752,
  "çĶŁäº§åĬĽ": 109650,
  "(em": 52073,
  "æĴŀ": 101340,
  "Drink": 84937,
  "ĠDimit": 87590,
  "åĨ°æ·ĩ": 117128,
  "_Controller": 30674,
  "åľ¨ä¸ĢæĹģ": 114847,
  "ĠyÃ¼k": 126736,
  "Ô¬": 148964,
  "ĠconnectionString": 62084,
  "á¸´": 150592,
  ".DataType": 77277,
  "çļĦæł¹æľ¬": 107030,
  "æ»¤": 102980,
  "ëĪ´": 145272,
  "imity": 30935,
  "Ġ\\|": 97155,
  "rique": 33295,
  "ä": 160,
  "Ġtroubled": 41032,
  "åı¯çĪ±çļĦ": 108541,
  "ĠMK": 26859,
  "MIT": 18330,
  "ĠSketch": 38401,
  ".Ch": 6353,
  "ĉuv": 88379,
  "ĠReferences": 44078,
  "à¹īà¸²à¸¢": 124574,
  "bk": 40029,
  "servername": 69760,
  "Ġaccurately": 29257,
  "&A": 35021,
  "Ġpredominantly": 46804,
  "ĠĠĠĠčĊ": 6421,
  "ëĿ¨": 146459,
  "Ġpeaked": 77192,
  "blk": 34989,
  "çļĦä»·æł¼": 104968,
  "rophy": 57075,
  "(ds": 33783,
  "boarding": 37569,
  "ĠØ§ÙĦÙħØ±ØŃÙĦØ©": 138070,
  "ĠWebsites": 63637,
  "ÙĬÙģ": 124394,
  "ĠFString": 65236,
  "ĠRFC": 39233,
  "'all": 64848,
  "Ġhaul": 37868,
  "Ð´ÑĥÑĤ": 135362,
  "èĹķ": 115641,
  "ÅĦ": 19150,
  "ãģĦãģ¦": 124141,
  "å´ģ": 122637,
  "âĽ¹": 147146,
  "rection": 30366,
  "OPTARG": 97991,
  "ãĦ·": 145039,
  "Ġ×Ķ×ľ×Ĳ×ķ×ŀ×Ļ": 140342,
  "âĻ¡": 144011,
  "ĠBronx": 65136,
  "Ġenvironmental": 12158,
  "',//": 86797,
  "ìł¬": 145929,
  "ĠaÅŁaÄŁÄ±": 128120,
  "ãħı": 145928,
  ".annotate": 92132,
  "ĠLayoutInflater": 28569,
  "$errors": 88175,
  "(fil": 87861,
  "è±®": 123530,
  "ĠArmed": 41394,
  "_checkbox": 55244,
  "Ġschool": 2906,
  "Ġpicnic": 54462,
  "æīĵåĵį": 111576,
  ".dx": 51991,
  "healthy": 37028,
  "(driver": 24032,
  "ĠSixth": 66977,
  "Ġmanagement": 6240,
  "å·¥ä½ľçļĦ": 104360,
  "ĠWebClient": 93354,
  "ĉglBind": 51604,
  "ij": 3172,
  "æĸĻ": 41406,
  "Ġreceber": 90145,
  "Natural": 54281,
  "Ġacademia": 66571,
  "×ł×§×ķ×ĵ×Ķ": 141729,
  "additional": 35499,
  "ðŁĺ²": 145759,
  "ĠìŀĪê²Į": 142161,
  "ĠyÃ¼rÃ¼t": 137043,
  "ĠSqlDataReader": 65511,
  ")','": 70073,
  "phan": 9943,
  "å£¯": 119077,
  "ĠØ§ÙĦÙħØ§Ø¶ÙĬ": 129745,
  "ĠSoros": 70187,
  "resume": 41395,
  "×ĳ×Ķ": 124529,
  "ç¨³å®ļæĢ§": 108239,
  "UIFont": 35105,
  "ĠCARE": 62327,
  "æĹłè§Ĩ": 116040,
  "_ATTACH": 49797,
  "_di": 29477,
  ":null": 53098,
  "pÃ³sito": 143269,
  "à¸§à¸±à¸ªà¸Ķ": 141100,
  "ĠzwykÅĤ": 143599,
  "ĠExisting": 68471,
  "×¤×Ļ×¡": 136798,
  "Ġuncover": 43963,
  "ĠObt": 56647,
  "ìĪķ": 150306,
  "æ·±åħ¥äºĨè§£": 118347,
  "Ġcreed": 91007,
  "quisa": 58495,
  "å¹³ç±³": 107046,
  "ĠHaiti": 55190,
  ".decrypt": 80315,
  "prep": 71774,
  "ĠÐĶÐµ": 129762,
  "Ġvoksen": 70920,
  "ĠØ§ÙĦÙĥÙħØ¨ÙĬÙĪØªØ±": 143792,
  "(check": 24077,
  "ðŁ¦Ħ": 146162,
  "Ûī": 146672,
  "ä¸Ģéĥ¨åĪĨ": 104954,
  "æŃ¥ä¼Ĳ": 103067,
  "nak": 42874,
  "anton": 30954,
  "×ľ×ŀ×ķ×ª": 134217,
  "ĠPhotography": 40047,
  "-eight": 69715,
  ",res": 24120,
  "ĠRiv": 50668,
  "_VEC": 70706,
  "ĠGen": 9316,
  "¡°": 48800,
  "ĉusage": 88777,
  "_gr": 15682,
  "Ġpprint": 46446,
  "Ġans": 8099,
  "celand": 35216,
  "æĸ°ä¸Ģä»£": 106777,
  "taboola": 48489,
  "ĠXL": 29881,
  "Ġanalyst": 18237,
  "è¯¾ç¨ĭ": 103995,
  "ĠÃ¶neri": 136819,
  "Ġcircle": 12671,
  "çĶ·ç¯®": 111777,
  "ĠGeneva": 44245,
  "ĠphÃ³ng": 136607,
  "æįĲæ¬¾": 108557,
  "reshape": 16137,
  "Ġcorn": 13776,
  "æ¸ĹéĢı": 106694,
  "ueblo": 60750,
  "Ġ×Ĳ×ķ×ª×ł×ķ": 132817,
  "ï³ļ": 147766,
  "ĠMeter": 52539,
  "ĠÃ´ng": 128436,
  "Ġpossibile": 79946,
  "ìĿľ": 148652,
  "æ¤ĭ": 120891,
  "ä½ľå¼Ĭ": 114640,
  "$image": 62151,
  "=temp": 53482,
  "íİ": 123996,
  "/object": 59489,
  "Gallery": 34182,
  "Ġdivul": 81691,
  "ç§ĴéĴŁ": 113356,
  "_Clear": 57744,
  "ĠseguranÃ§a": 133665,
  "_ACTION": 21866,
  "ĠØ£ÙĨÙĩØ§": 130543,
  "_HEADER": 20330,
  "æ¨¡": 53772,
  "Ġconstit": 8952,
  "Ġanonymous": 22151,
  "ë£į": 150924,
  "-complete": 74414,
  "idd": 1772,
  "project": 4987,
  "Ðĩ": 145541,
  "éª¨æĬĺ": 112460,
  "ĠcÃ¡nh": 134374,
  "Ġmethod": 1714,
  "@Service": 31876,
  "extension": 12427,
  "_prime": 38217,
  "Com": 1092,
  "Tambah": 91051,
  "-actions": 51321,
  "Constraints": 12925,
  "warn": 33481,
  "_patterns": 64923,
  "ï¥¸": 146891,
  "åįģä¸īæĿ¡": 116671,
  "Ġrotations": 69201,
  "æĸ°æīĭ": 105116,
  "iaÅĤa": 94590,
  "FileSize": 67649,
  "ĠÑĦÐ¸Ð³": 143372,
  "Machine": 21605,
  "Ø§ØŃØªÙħØ§ÙĦ": 143350,
  "PG": 11383,
  "à¹Ģà¸Ļà¸µà¸¢": 133377,
  "drug": 72721,
  "ä¸Ģå¤§æī¹": 109602,
  "log": 839,
  "@SpringBootApplication": 62261,
  "ĠTexas": 8257,
  "ê¹Ķ": 144235,
  "igated": 82241,
  "éĿŀå¸¸éĢĤåĲĪ": 118818,
  "Ġoldu": 57000,
  "water": 12987,
  "ĠGPI": 96537,
  "(CharSequence": 72646,
  "Ġb": 293,
  "uguay": 59203,
  ".physics": 53198,
  "ĠInitialization": 39267,
  "Ġkomt": 72633,
  "thrown": 86445,
  "ĠâĢ»": 83399,
  "LICENSE": 64368,
  "Ġludicrous": 89171,
  "ĠModi": 34389,
  "Ġdiagrams": 46187,
  "ãģĶç´¹": 135079,
  "ĠAAA": 47097,
  "èĿ¥": 121693,
  "Ġstrtotime": 24646,
  "GL": 3825,
  "ãģ®ãģł": 130621,
  "WAY": 41803,
  "upertino": 78454,
  "));//": 61318,
  "iah": 19310,
  "áĨ¡": 150058,
  "AMERA": 87909,
  "çļĦå¿ĥ": 101421,
  "Ġtxn": 49721,
  "<size": 30123,
  "_compare": 32235,
  "Criteria": 12823,
  "áŀĵ": 146160,
  "ĠBangkok": 59016,
  "Ġspd": 81462,
  "dÄ±klarÄ±nÄ±": 142410,
  "neg": 28775,
  "Ġarsch": 93236,
  "UTION": 28617,
  "ĠÑģÐ¸ÑĤÑĥÐ°ÑĨÐ¸Ð¸": 139367,
  ".Nil": 59678,
  "ĉMessageBox": 85151,
  "feit": 61121,
  "ĠProductions": 51864,
  "ARNING": 12630,
  "Ġperme": 54324,
  "ĠmÃ£o": 135069,
  "ìĳ¥": 144973,
  "matcher": 70826,
  "reso": 49764,
  "Ġminerals": 32972,
  "ĠPublishers": 71614,
  "ĠPerception": 85850,
  "à¹Ģà¸ĩà¸´à¸Ļ": 126248,
  "Ġhatred": 34142,
  "ĠBiaÅĤ": 139425,
  "Ġsofort": 76720,
  "locks": 34936,
  "à¸ĩà¸²à¸¡": 127668,
  "ĠLama": 82559,
  "_CHK": 87855,
  "ĠÙħØ¶": 133020,
  ".Standard": 53615,
  "\"><!--": 78993,
  "èº²": 101567,
  "ities": 1361,
  ")));čĊ": 21054,
  "-folder": 74604,
  "fone": 31341,
  "=wx": 90712,
  "åıªåī©": 103434,
  "ĠÐ°": 20396,
  "éķĲ": 119488,
  "School": 32749,
  "ðĿĸĨ": 147117,
  "conduct": 76652,
  "dÃŃ": 133489,
  "æĹłåħ³": 107173,
  "ÙĬØ³Ø±": 141905,
  "åįĥåı¤": 117207,
  "Ø¨Ø±ÙĬØ¯": 137541,
  "éĢħ": 120165,
  "ĠYOU": 14985,
  ")./": 89486,
  "Ġshares": 13248,
  "ĠPhones": 84575,
  "Ġclosets": 94740,
  "(op": 17096,
  "MaxLength": 35601,
  "Approval": 90107,
  "íĤħ": 151068,
  "ĠDatagram": 96804,
  "ĠGeorgia": 15893,
  "...)Ċ": 31218,
  "ê±°ëŀĺ": 137319,
  "SVG": 64397,
  ".animate": 37695,
  "CHIP": 88588,
  "ĉretval": 61370,
  "à¸ªà¹Īà¸§à¸Ļà¸¥à¸Ķ": 140037,
  "ĠpequeÃ±o": 133894,
  "ĠDetector": 79019,
  "FileInfo": 45430,
  "GENERAL": 94736,
  "Ġ'{}": 32912,
  "ĠØ§ÙĦÙĥØ¨ÙĬØ±": 132927,
  "ï»Ĩ": 148096,
  "áĪķ": 148989,
  "×¤×¢×Ŀ": 131602,
  "ÙĩÙħ": 124138,
  "×¨×Ĳ×Ķ": 125549,
  "Ġregarded": 26361,
  "lookup": 21020,
  "reported": 75733,
  "ĠMarxist": 68950,
  "ĠMonetary": 73114,
  "ĠClock": 26142,
  "Ġcomfortably": 44669,
  "semb": 4838,
  "į": 235,
  "ovid": 25582,
  "ĉj": 12428,
  "å¸°": 139639,
  "Ġmindfulness": 70605,
  "ĠAmit": 83763,
  "(pin": 56065,
  "Ġcompelled": 47884,
  "sta": 20491,
  "æĤĨ": 122852,
  "ĠAnalysis": 18320,
  "ĠâĢ¦ĊĊ": 12022,
  "èģĶç³»çĶµè¯Ŀ": 112215,
  "Ġrecognize": 15282,
  "/board": 97430,
  "ç¬¬ä¸ĢæĿ¡": 116252,
  "ĠRhode": 49881,
  "<![": 76063,
  "ĠCaesar": 53653,
  ":].": 72559,
  ".arch": 38091,
  "_STATIC": 31352,
  "Ġpounding": 69527,
  "[prop": 48815,
  "ðŁĳĴ": 147363,
  "ä¸ĢåŃ£åº¦": 108283,
  "å²ĺ": 119708,
  "ĠìļĶì²Ń": 142163,
  "Paths": 26901,
  "å®¶åħ¬åı¸": 110188,
  "ì¿±": 146059,
  "Ġpackets": 27035,
  "éļĪ": 120814,
  "ĠAdventures": 50579,
  "_sections": 59485,
  "ðŁĨĤ": 149913,
  "_strdup": 45901,
  "Ġdeadlines": 57882,
  "Ġtemple": 26752,
  "çĮ¿": 115272,
  "ĠGetComponent": 27750,
  ".GL": 36475,
  "à¸ªà¸³à¹Ģà¸£à¹ĩ": 134879,
  "ĠDouble": 7093,
  ".track": 40794,
  "ĠĠĠĠĠĠĠĠĠĠĠĠĠĠĠĠĠĠĠĠĠĠĠĠĠĠĠĠĠĠĠĠĠĠĠĠĠ": 8333,
  "ORM": 4365,
  "Ġdemolished": 75893,
  ".bias": 58252,
  "Ġaggi": 68369,
  "scope": 4186,
  "Ġglyphs": 84277,
  ".persistence": 10305,
  "basename": 42953,
  "ĠFAC": 84303,
  "Ġincap": 39868,
  "avers": 21565,
  "Friends": 44343,
  "===========Ċ": 58445,
  "ĠCameroon": 94008,
  "èĪĽ": 119634,
  ".reason": 57703,
  "Further": 30328,
  "è¿ĳè·Ŀç¦»": 114926,
  "Ġbaggage": 60549,
  "ĠÄ°ÅŁte": 137361,
  "editar": 83175,
  "ï¤ĺ": 149120,
  "çĶ·æĸ¹": 118197,
  "Ġinto": 1119,
  "he": 383,
  "×ķ×©×Ļ×Ŀ": 134942,
  "çĨŁçŁ¥": 112068,
  "ĠprivÃ©": 134283,
  "_tensor": 23188,
  ".metro": 36889,
  "ç»Ļå¤§å®¶": 102585,
  "=set": 68800,
  "ĉPreparedStatement": 59337,
  "ĠLaTeX": 97913,
  "|čĊ": 84539,
  "Ġdecision": 5480,
  "ÙħÙĨØŃ": 133672,
  "Ġuninstall": 53635,
  "Ġheads": 14629,
  "à¹Ĥà¸Ł": 127989,
  "ĠláºŃp": 128980,
  "ĠÃ¡p": 129470,
  "Ġdeformation": 90521,
  "Ġchests": 83318,
  "ðĵĪĴ": 148828,
  "à¸Ļà¹Īà¸²à¸£à¸±à¸ģ": 136809,
  ".ĊĊĊĊĊĊĊĊĊĊ": 39365,
  "è¡Ģæ¶²": 102713,
  "Ġ<%": 59230,
  "âī£": 148315,
  "ï»§": 144524,
  ".MaxValue": 44534,
  "RetVal": 95200,
  "Ġindividually": 31299,
  "protected": 5764,
  "Ġhangs": 58341,
  ".ol": 90365,
  "ĠTurnbull": 67846,
  "ħĮ": 72509,
  "ĠÑĤÐ¾": 58246,
  "Ġescre": 96945,
  "Ġwears": 37300,
  "éĹ®çŃĶ": 111436,
  "_generic": 41232,
  "-campus": 93319,
  "_SYNC": 39189,
  "æ¸¸è§Ī": 107871,
  "ĠÐ§Ðµ": 131234,
  "å°ĳä¸įäºĨ": 116404,
  "ĠCK": 30066,
  "Ġdentro": 35128,
  "çįŃ": 121807,
  "Ġexecut": 23494,
  "margin": 8936,
  "âĴ·": 149663,
  "Ġjeszcze": 80253,
  "ĠonChange": 9095,
  "ĠKash": 41608,
  "ĠTextInputType": 92551,
  "arians": 29527,
  "ĠBun": 65247,
  "_processed": 63916,
  "æł¸çĶµ": 111237,
  "(Max": 90332,
  "Ġbarrels": 41875,
  ".puts": 71410,
  "Ġformation": 18003,
  "Ġfaster": 10596,
  "\">ÃĹ</": 86224,
  ".EOF": 86492,
  "UPPORTED": 61140,
  "ĠSolid": 22138,
  "å¾Īéķ¿": 110302,
  "×ŀ×ª": 124633,
  "Ġgrips": 66239,
  "Ġautomotive": 39408,
  "Ġasympt": 96254,
  "ĠGuru": 61979,
  "é¥ķ": 122097,
  "('''": 83434,
  "Ġadolescent": 34988,
  "×¢×ķ×¨×¨": 133334,
  "ongsTo": 34225,
  "Ġgcc": 50917,
  "Ġê°ĻìĿĢ": 129381,
  "ĠNB": 34979,
  "å¤§èĩ£": 111312,
  "Ġrevision": 23578,
  "Ġshiny": 41199,
  "Nm": 68205,
  "åĴĮå®ĮåĸĦ": 112581,
  "è¯·çĤ¹åĩ»": 118933,
  "Metric": 54310,
  "ĠIsles": 85943,
  "Ġmajor": 3598,
  "ĠEIF": 27695,
  "ĠAct": 3218,
  "æ¶ĤæĸĻ": 107159,
  "çºĽ": 122118,
  "verting": 49417,
  "ĠonTap": 35384,
  "Ġdoubted": 92662,
  "ĉiNdEx": 95765,
  "íĭĳ": 151080,
  "ìŀª": 151016,
  "igmoid": 52111,
  "ç°Ŀ": 123689,
  "æĦĪ": 100939,
  "nÄĻÅĤa": 141716,
  "æĬĢå·§": 102118,
  "Ġdred": 90362,
  "villa": 63338,
  "Ø§Ø³ØªÙģØ§Ø¯Ø©": 142901,
  "×ķ×Ķ": 124188,
  "×Ĳ×ķ×ĺ×ķ×ĳ×ķ×¡": 139488,
  "&E": 68148,
  "æĸ°åįİ": 101560,
  "çĶ·ä¸»è§Ĵ": 117959,
  "\\',": 54287,
  "Ġ×ŀ×§×ķ×ŀ×Ļ": 140543,
  "â½ħ": 147160,
  "æľīæĦıæĢĿ": 113061,
  "çļĦåĸľçĪ±": 110301,
  "Ġintervene": 54479,
  "ä¸īä½į": 103359,
  "ritable": 22533,
  "Ġìł": 18585,
  "ĠMacro": 53317,
  "à¸£à¸¹": 125554,
  "ĠÐ²ÑĢÐ°": 133759,
  "ĠÐŁÑĢÐ¸": 128462,
  "á¬ľ": 150212,
  "_received": 40783,
  "å£°": 70074,
  "ä½ĵçİ°": 101257,
  "Ġmoreover": 43543,
  "ĠÐ²Ñģ": 34614,
  "æ»Ķ": 112820,
  "ĠgÃ¼": 53908,
  "Mc": 25286,
  "headline": 63193,
  "side": 2929,
  "Ð¾Ð½Ð°": 73728,
  "Img": 13033,
  "alia": 18848,
  "ÙĩØ§Ø¦ÙĬ": 128145,
  "Ġdá»ĭp": 137789,
  "Ã¼ncÃ¼": 143389,
  "Ġblond": 44369,
  "à¸Īà¸²": 130536,
  "Ġdraped": 89880,
  "Ġpeasant": 88938,
  ".CONFIG": 88466,
  "ĠBODY": 68583,
  "Ġcorridors": 74652,
  "ĠnghÃ¨": 138815,
  "è¯ĬæīĢ": 116243,
  ".setItem": 19401,
  "ĠWÃ¤hrend": 142073,
  "jdk": 88851,
  "Ġbeurette": 81712,
  "Ġhealthier": 38245,
  "åĪļ": 99900,
  "çĽĳåĲ¬": 52702,
  "åĩºçĶŁäºİ": 112625,
  ".MustCompile": 98626,
  "å°Īæ¥Ń": 108678,
  "ë¥ł": 127834,
  "à¹īà¸ĩ": 123976,
  "Ġ×ľ×Ķ×¢×ĳ×Ļ×¨": 140069,
  "INO": 47975,
  ".CREATED": 98639,
  "nym": 48121,
  ",I": 37768,
  "éĴĵé±¼": 110465,
  "å®īåħ¨ä¿Ŀéļľ": 117110,
  "ellite": 18155,
  "éĥ½æ²¡æľī": 104338,
  "ĠÃĸzellikle": 136637,
  "çĽ¸ç»ĵåĲĪ": 104876,
  "egade": 95237,
  "åĩłä½ķ": 111867,
  "Ġpractitioners": 42095,
  "_install": 34245,
  ".info": 5391,
  "Angle": 15939,
  "Ġprescribing": 88344,
  "Ġabol": 36176,
  "ìĸ¸": 129709,
  "æīįèĥ½": 101901,
  "Ġdamages": 25129,
  "ÙħØ±ÙĥØ²": 137691,
  "-founded": 82108,
  "Ġsuggestions": 18225,
  "æĶ¶ç¼©": 109501,
  "ĠCEOs": 74217,
  "-boy": 84903,
  ".SetInt": 84725,
  "-live": 73451,
  "branch": 17940,
  "Ġproble": 2499,
  "Ġrotates": 89059,
  "áµİ": 149598,
  "amber": 15221,
  "Ġpenc": 65274,
  "æĭľå¸ĪåŃ¦èīº": 118815,
  "urther": 3917,
  "/alert": 79688,
  "ĠCommunities": 57343,
  "_CONTENT": 25560,
  "+:": 15413,
  "á¨ķ": 150063,
  "Ġprof": 2778,
  "ĠpushViewController": 62059,
  "ĠìĨ": 77596,
  "cstdlib": 42695,
  "×¢×ĸ×¨": 127255,
  "suppress": 96960,
  "å¯©": 109544,
  "(Func": 77358,
  "/entities": 65885,
  "Ġauthored": 66113,
  "ĠØ§ÙĦÙĪØ·ÙĨÙĬ": 131262,
  "\".": 3263,
  "oding": 3700,
  "ìĸĶ": 148420,
  "æĲºç¨ĭ": 115051,
  "ĠPutting": 77890,
  "ç¯®çĲĥ": 105732,
  "ĠthÃºc": 133600,
  "ĠVolunteers": 85170,
  "RefPtr": 76629,
  "Ġ×ľ×ŀ×¦×ķ×Ĳ": 131144,
  "Ġ×ŀ×ĵ×ķ×¢": 137140,
  "å±¥": 100834,
  "Ġmall": 33253,
  "Ġbarren": 93988,
  "çıŃåŃĲæĪĲåĳĺ": 107332,
  "áįĲ": 150003,
  "Ġsuggests": 13230,
  "ĠRepublican": 9356,
  "ĠØ´Ø§ÙħÙĦ": 143870,
  "ÑĨÐ¸Ñİ": 133126,
  ".telegram": 82803,
  "/status": 32518,
  ".TR": 32889,
  "à¯ģ": 83198,
  "Steel": 64948,
  "éķķ": 123464,
  "ULATE": 79223,
  "ĠHEAD": 33080,
  "Ġstap": 35014,
  "ĠGhost": 25044,
  "_commit": 36346,
  "-limit": 71159,
  "ĠHarm": 90971,
  "_SUM": 50369,
  "å¾ģæĶ¶": 107374,
  "ĠPhilosophy": 45869,
  "Nike": 91844,
  "cannot": 33260,
  "ãĥ¬ãĤ¹ãĥĪ": 141992,
  "Ġ×ŀ×ķ×¦×¨×Ļ×Ŀ": 137040,
  "_UNIX": 82754,
  "ĠmÃ¶glich": 50837,
  "áºı": 149615,
  "ĠRob": 4892,
  "eration": 20927,
  "Ġkvm": 94748,
  "ĠTuesday": 7589,
  "Ø§Ø¦ÙĨ": 135688,
  "zeichnet": 85740,
  "[col": 33522,
  "ĠTitans": 46611,
  "ä¸ºä»Ģä¹Īä¸į": 111846,
  ")]": 7252,
  "Ġbiblical": 52540,
  "\\Resources": 87766,
  "Ġ':'": 36304,
  "cia": 24119,
  "_channel": 14571,
  "iterated": 50486,
  "ç®¡çĲĨä½ĵåĪ¶": 117547,
  "Ġngáº¡c": 143152,
  "Ġkas": 47656,
  "åįī": 103216,
  "ðŁ§ª": 149958,
  "ĠÃ©galement": 43667,
  "·»åĬł": 35125,
  "gather": 95725,
  "ÙħÙĨØ§Ø·ÙĤ": 135493,
  "à¸Ļà¹Į": 125133,
  "ĠSudoku": 94254,
  "-calendar": 46997,
  "Ġbitte": 67382,
  "mue": 91138,
  "Illustr": 96157,
  "Generated": 15741,
  "Ġtaps": 61970,
  "ĠShades": 80147,
  "_ADV": 74438,
  "åĸĦèī¯": 107749,
  "ãģ«ãģĤãĤĭ": 129702,
  "omitempty": 19967,
  "ëĨĢ": 137666,
  "Ġcleared": 22949,
  "ĠIHttpActionResult": 91457,
  "ØªØŃØ¶": 143074,
  "ĠÐ·Ð°Ð²Ð¸Ñģ": 128039,
  "ĠØ§ÙĦØ¹ÙħÙĦØ§Øª": 137371,
  "zes": 31793,
  "_fix": 36060,
  "<Option": 94150,
  "Lists": 37848,
  "èģĶ": 49082,
  "Ġmeth": 21068,
  "éħ°": 119048,
  "Ġ'/',": 56427,
  "åį°è®°": 118972,
  "ë»´": 150966,
  "Å¥": 74801,
  "ĠsantÃ©": 76223,
  "Ġgaping": 98936,
  "ĠSOLD": 83151,
  "Ġerotiske": 65653,
  "Ûħ": 150049,
  "Ġdesn": 65280,
  "getDefault": 75987,
  "ãĤ¹ãĥĪ": 70534,
  "Ġcorrelation": 25588,
  ".Environment": 45651,
  "enames": 32954,
  "Ġgeneric": 13954,
  "ä¹Łåı¯èĥ½": 108542,
  "Ġpermutations": 71949,
  "ĠSupplements": 91310,
  "Ġ×Ķ×ĸ×Ľ×ķ×Ļ×ķ×ª": 131094,
  ".Value": 6167,
  "Disk": 47583,
  "ĠcÃ¼m": 143989,
  "Ġweddings": 54244,
  "Points": 11411,
  "ä½ĨçĶ±äºİ": 109112,
  "æŀ¥": 119833,
  "ĠRum": 45232,
  "ĠSucc": 88179,
  "knowledge": 89053,
  "ç²ĴåŃĲ": 117184,
  "à¸ģà¸±à¸ĩà¸§à¸¥": 143646,
  "inline": 5057,
  "ãĤ«ãĥķãĤ§": 140470,
  "=ĊĊ": 68327,
  "éĵ»": 120955,
  "íĬķ": 145704,
  "Ġdoom": 58614,
  "(filtered": 86021,
  "][\"": 9868,
  "ĠDiá»ħn": 141351,
  "Ġkol": 47119,
  "Ġchatte": 53851,
  "/vendor": 35663,
  "æ²³æ°´": 113015,
  "Ġexposed": 14900,
  "Safety": 73037,
  "ĠProposed": 98883,
  "-based": 5980,
  "IMO": 83404,
  "hero": 17732,
  "anda": 9817,
  "ĠCanvas": 25698,
  "åŃ³": 121038,
  "ç¢Į": 103019,
  "Ġrecalls": 40131,
  "Ġbiz": 42378,
  "à¸ģà¸²à¸£à¸Īà¸±à¸Ķ": 133589,
  "_matches": 38344,
  "ĠIDC": 25000,
  "Vectorizer": 95111,
  "andle": 3316,
  "Ġbureaucratic": 79395,
  "Ġtransports": 68069,
  "BAT": 61303,
  "ëļľ": 144511,
  "Ġdáº§n": 134724,
  ".fire": 22626,
  "Ġsept": 34329,
  "Ġlul": 68063,
  "Connor": 56887,
  "--*/Ċ": 95707,
  "ãĤµãĥ¼ãĥĵ": 129177,
  "Ġoperational": 24586,
  ".register": 9929,
  "Ġ×ķ×ľ×Ľ×Ł": 131601,
  "Ġ×Ľ×Ĳ×©×¨": 129004,
  "hv": 81979,
  "splash": 48632,
  "setText": 20989,
  "Put": 19103,
  "ĠSeason": 14263,
  "ÙĥØ«Ø±": 124835,
  "ixmap": 24593,
  "Ġstellt": 97096,
  "(\"<": 9639,
  "ĠConvers": 55396,
  "<AM": 33434,
  "åĬŃ": 119783,
  "åĲĪéĢĤ": 100968,
  "ĠTown": 13971,
  "jual": 65029,
  "è¡¨": 20742,
  "Db": 7994,
  "ĠStatelessWidget": 36798,
  "Ġminimal": 17377,
  "achinery": 62954,
  "åĨħå®¹ç®Ģä»ĭ": 114004,
  "×©×Ĳ×¨": 129588,
  "Ġslugg": 79022,
  "×Ĺ×ľ×ĺ": 126115,
  ".variables": 51293,
  "/graph": 72177,
  "Ġ×ĳ×ĵ×Ļ": 131624,
  "Ġmanifold": 72829,
  "ðŁ¥Ĺ": 147439,
  "Ġinsure": 69532,
  "Ġgst": 43769,
  "×ĵ×ª×Ļ": 136118,
  "Ġperfil": 63112,
  "×Ĵ×¢×ª": 140883,
  "æľĢæĸ°çļĦ": 108324,
  "(renderer": 58172,
  "Ġ'').": 40691,
  "ĠFires": 82830,
  "Ġbehalf": 17522,
  "ì¿Ļ": 149796,
  "ĠlocalObject": 58272,
  "..\"": 37426,
  "ç±»åŀĭ": 31905,
  "Ġdevel": 89770,
  "]==\"": 68096,
  "Ġideologies": 88871,
  "å½ĵä»Ĭ": 106850,
  "Ġ×ª×ķ×Ľ×ł": 139689,
  "ey": 1195,
  "dont": 77025,
  "Scalar": 20639,
  "ĠKenya": 36666,
  "ĠNoon": 82856,
  "æĭīä¸ģ": 115153,
  "Friday": 34620,
  ".OneToOne": 95829,
  "ĠCummings": 87371,
  "_related": 53256,
  "Ġvacant": 48691,
  "á½º": 146286,
  "çļĦäººæĿ¥è¯´": 115858,
  "ĠTahoe": 95886,
  "Ġdetermine": 8253,
  "XPath": 76531,
  "Ġpartido": 73041,
  "Crud": 92061,
  "ĠTex": 31468,
  "åĢ¼å¾Ĺ": 100760,
  "Ġtimedelta": 42255,
  "Invariant": 76621,
  "jury": 41761,
  "assandra": 70093,
  "_oid": 59633,
  "æİĴåĲįç¬¬": 113704,
  ".synthetic": 46092,
  "ĠBernard": 34252,
  "icients": 28142,
  "Fallback": 87206,
  "ìĿ´ëĤĺ": 129835,
  "ĠLD": 28877,
  "Ġlenght": 83254,
  "ĠÅŀa": 130998,
  "Ġlá»Ĺi": 133015,
  "Ġbenchmark": 28431,
  "#${": 94453,
  "ĠGA": 26341,
  ".gradient": 87563,
  "ØªØ³Ø¬ÙĬÙĦ": 131051,
  "_OW": 69819,
  "ĠIgn": 33781,
  "ĠØ¨Ø£": 129521,
  "Ġkhi": 94994,
  "_algorithm": 59531,
  ".getUserId": 58181,
  "-multi": 95669,
  "Ð²Ð»ÐµÑĩÐµÐ½": 136995,
  "ĠgetClass": 47237,
  "Withdraw": 92261,
  "èľ»": 119469,
  "ives": 1886,
  "èĮŃ": 120044,
  "è°Ĭ": 101691,
  "Ġexcav": 44115,
  "Ġstand": 2498,
  "×¨×ŀ×ª": 130870,
  "Powered": 71504,
  "\\Collections": 79905,
  "Ġxáº¥u": 135429,
  "ëıĹ": 145294,
  "Ġlá»Ļ": 130540,
  "ÓĻ": 145004,
  "ByUsername": 91519,
  "])),Ċ": 87619,
  "_tip": 48014,
  "Ġballs": 20332,
  "çµ²": 109407,
  "ĠNáºµng": 135241,
  "åĨ¬": 99949,
  "_singleton": 82119,
  "ĠRanger": 48322,
  "Would": 27989,
  "ĠØ¨Øµ": 127726,
  "owaÅĤa": 132233,
  "ðŁķĽ": 149996,
  "-settings": 40032,
  ".WriteAllText": 99022,
  "ĠJahren": 45506,
  "è§¿": 123790,
  "Ġdevast": 22440,
  "_EXTENDED": 95952,
  "ä¸ĭåĪĹ": 107976,
  "ĠEating": 59538,
  "Ð»ÐµÑĢ": 127879,
  "Ġdistract": 63817,
  "ÑĤÑĢÑĥÐ´": 136020,
  "_DEFAULT": 13811,
  "ĠngÃ´i": 132406,
  "æĬĢ": 82201,
  ".moves": 84516,
  "Ã©lection": 139980,
  "æľĢé«ĺçļĦ": 106667,
  "_posts": 20222,
  "ç©Ħ": 123554,
  "Ġresh": 63693,
  ".DataContext": 91194,
  "ĠMEDIATEK": 50709,
  "âķ¦": 148485,
  "webkit": 25400,
  "inheritdoc": 21047,
  "èµ·æºĲ": 113228,
  "onne": 28952,
  "Ġcommerce": 35654,
  "eth": 769,
  "('\\\\": 54093,
  "_fn": 15246,
  "Ġdbs": 84581,
  "queueReusableCell": 38559,
  "ĠOscars": 88796,
  "_goal": 41264,
  ".mixer": 88303,
  "Ġcosting": 53724,
  "ouch": 3026,
  "èĲ½åĪ°å®ŀ": 117413,
  "ðŁĺ½": 147624,
  ".setInput": 79416,
  "getti": 96372,
  "']);čĊ": 25644,
  "DataService": 83965,
  "Ġillust": 96483,
  "ĠRed": 3731,
  "ì§": 16747,
  "ĠMM": 21665,
  "çĹ¼": 121274,
  "ĠMozilla": 34733,
  "_argument": 9025,
  "Repository": 4624,
  "ĠWholesale": 55416,
  "_host": 12848,
  "ersistent": 13931,
  "èĭ±æĸĩ": 105205,
  "Ã¼nd": 34271,
  "ĠInfluence": 74940,
  "Ã¤nde": 90360,
  "è§Ń": 123478,
  "ĠChildren": 15044,
  "ĠEB": 49142,
  "MT": 8505,
  "eko": 97664,
  "ĠILogger": 51693,
  "åıĳåŀĭ": 110145,
  "åĽºå®ļèµĦäº§": 110974,
  "ĉRTCT": 96636,
  "Ġcultivating": 98039,
  "ï®Ń": 145983,
  "{\\": 35702,
  "Ġpasse": 38804,
  "åĬ±å¿Ĺ": 109880,
  "ĠØ§ÙĦØ¹ÙħÙĦÙĬØ©": 137637,
  "Ġbruk": 80771,
  "ç¬¬ä¸ĢæĹ¶éĹ´": 105201,
  "ĠCOMMIT": 83230,
  "Ġsuo": 51512,
  "çĽİ": 120385,
  "Ç¥": 149480,
  "ception": 995,
  "åħ¥èģĮ": 116723,
  "Johnny": 87860,
  "ĠOber": 51145,
  "({\"": 16864,
  "Ġchuckled": 96611,
  "Ġcaramel": 58711,
  "Ġdilig": 38287,
  "ywaÄĩ": 135776,
  "Ġparagraphs": 42643,
  "Ġlandmark": 37250,
  "texture": 27496,
  "æıĲåıĸ": 107439,
  "ĠÙĩÙĬ": 128420,
  "ĉxtype": 94247,
  "grams": 50770,
  "ç»ıèĲ¥ç®¡çĲĨ": 108408,
  "Ġrevise": 64736,
  "çĽ¸çĪ±": 114488,
  "åĵªåĦ¿": 103379,
  "æľªä¾Ĩ": 109152,
  "done": 10438,
  "Ġfourn": 80894,
  "ĠRI": 47497,
  "æ´¥": 100468,
  "incr": 98428,
  "Ġ********": 34145,
  "_lstm": 96397,
  "ĠÐ´Ð½Ñı": 133072,
  "ãĤģãĤĭ": 126776,
  "ĠÐŀÐŀ": 139283,
  "á¶ħ": 149601,
  "ĠREFERENCES": 78656,
  "ãģ¨ãģ¦ãĤĤ": 129235,
  "æłĩçļĦ": 107641,
  "urm": 52370,
  "Ġundergrad": 85072,
  "ĠComputer": 17407,
  "Ġelm": 42205,
  "ĠHind": 19825,
  "_ME": 33037,
  "_FAMILY": 80828,
  "peed": 4508,
  "mann": 17562,
  ".es": 18550,
  "×ľ×ķ×Ĵ": 126889,
  "ãģĨãģĵãģ¨": 139190,
  "intendent": 43402,
  "Ġproficiency": 62139,
  "çļĦåİŁåĪĻ": 105249,
  "ĠWitness": 48899,
  "éķ·ãģĦ": 137029,
  "ocytes": 56778,
  "ĠDOT": 48326,
  "])).": 54697,
  "âĢĶwhich": 48904,
  "Ġoutings": 95627,
  "Ġclosure": 21955,
  "_Info": 39624,
  "å°ĳè§ģ": 115448,
  "_arch": 34330,
  "Responses": 70743,
  "ä¸Ģæ¬¡æ¬¡": 112599,
  "æĴ°åĨĻ": 110479,
  "-redux": 19604,
  "Ġlubric": 53394,
  "unchecked": 31684,
  "ĠFurthermore": 23405,
  "bx": 21861,
  "Ġregistration": 12227,
  "ĠDude": 85209,
  "Ġ?>'": 91566,
  "á¸º": 149610,
  "ĠmacOS": 67178,
  "Ġeher": 93395,
  "-big": 69411,
  "Ġambush": 78965,
  "èį¼": 120314,
  "ä¸¤ç±»": 116861,
  "_LARGE": 83861,
  "ĠIonicModule": 81182,
  "ðĿĵ": 123871,
  "Ġsetting": 6243,
  "unting": 26324,
  "çķ¶æĤ¨åľ¨": 114323,
  "Ġfertile": 69125,
  "åģĩæľŁ": 106157,
  "characters": 47485,
  "Ġoffshore": 38400,
  "ĉĉĉĊĊ": 65267,
  "åİĭåĬĽ": 101950,
  "correo": 66171,
  "åįĹäº¬": 102034,
  "ĠDirk": 83929,
  "Ġarisen": 89854,
  "áĲł": 150527,
  "ĠMacros": 98447,
  "ĠhÃł": 130734,
  "æīĵäº¤": 117385,
  "Ġ/*čĊ": 48666,
  "æīĢæľīæĥħèĬĤ": 117906,
  "åŃĺéĩı": 109974,
  "(movie": 42604,
  "ĠpÃ¡": 64745,
  "×Ĵ×Ļ×¨": 138899,
  "Ġsuited": 31499,
  "ifiant": 83454,
  "ĠÑĢÐµÑĪ": 126091,
  "_store": 14809,
  "å°ģå»º": 112391,
  "Ġtenants": 39916,
  "Block": 4713,
  "MPI": 56369,
  "ARC": 46472,
  "à¥Ĳ": 146093,
  "ĠSometimes": 17688,
  "Ġ')';Ċ": 85490,
  "======": 45347,
  "çļĦä¸Ģ": 99774,
  "Ġoutlier": 88160,
  "HOME": 27546,
  "æĸ°éĹ»ç½ĳ": 105094,
  "åĲİçļĦ": 104813,
  "çīº": 102916,
  "ÐµÐ´Ð°Ðº": 82486,
  "çĭ²": 120191,
  "ĠTICK": 75711,
  "à¸Ķà¸³à¹Ģà¸Ļà¸´à¸Ļà¸ģà¸²à¸£": 135914,
  "ĠRA": 28456,
  "Ġwonders": 39064,
  "(delta": 36073,
  "æ»¢": 121298,
  "Ø§Ø°": 125908,
  "á¹ģ": 145770,
  "ä¸Ģèº«": 106364,
  "Ġethn": 78080,
  "ĠWave": 31318,
  "(isinstance": 96461,
  "Ġguarding": 79500,
  "ĠRolex": 96532,
  "Ġë§ĮëĤĺ": 142353,
  "çĦ¶èĢĮ": 103968,
  "table": 2005,
  "åĩĢæ°´": 118665,
  "ĠThÆ°": 138532,
  "VERSE": 56501,
  "axis": 7184,
  "Ġchmod": 59615,
  "è¡Įé©¶": 106019,
  "_written": 72403,
  "Ġmodes": 19777,
  "ãĥ´ãĤ¡": 139330,
  "Ġpasture": 88255,
  "USER": 6448,
  ".WHITE": 42382,
  "_tel": 67180,
  "abajo": 73268,
  "igest": 15153,
  "istra": 74963,
  "Ġeiusmod": 79122,
  "ãħĲ": 148839,
  ".Score": 82080,
  "ãģ¤ãģı": 131789,
  "Ġ|ĊĊ": 35721,
  "BootTest": 45054,
  "ĠMatSnackBar": 98509,
  "ĠHelper": 12906,
  "ndx": 93256,
  "Ġsteep": 31266,
  "Ġke": 1962,
  "ÙģÙĤ": 129152,
  "draulic": 32742,
  "Ð»Ð°Ð´": 79130,
  "gly": 22945,
  "Ð³Ð°": 128440,
  "åĽĶ": 122121,
  "Ġcrisp": 41854,
  "Ġfj": 75371,
  "[df": 53205,
  "Ġdoubtful": 74599,
  "çºªæ£Ģ": 103076,
  ".Author": 33858,
  "();}Ċ": 61355,
  ".Publish": 83935,
  ".attribute": 38810,
  "å®¡è®®": 103065,
  "Ġ×ķ×Ĳ×Ĺ": 133253,
  "Ġstrugg": 7930,
  "GAME": 47575,
  "engu": 27004,
  "ĠKotlin": 92854,
  "ç¾İä¸½": 101280,
  "Ġanaly": 8510,
  "ðŁ¤±": 148190,
  "×¨×Ļ×©": 142294,
  "Ð¸ÑĩÐµÑģ": 80201,
  ".isRequired": 19934,
  "ê°Ĺ": 147411,
  "Ġpublishing": 22913,
  "_renderer": 52345,
  "Ġprosper": 28661,
  "ĠHair": 25697,
  "çľŁç©º": 110797,
  "ðŁĮ±": 145290,
  ".HasValue": 40299,
  "ìĪı": 145673,
  "boxed": 79075,
  "Fi": 22715,
  "ìĥĽ": 145912,
  "Ġprops": 6914,
  "æľĥåĵ¡è¦ı": 107753,
  "ãĢł": 149700,
  "Ġ×Ķ×Ľ×ķ×ľ×ľ": 139613,
  "Ġreliant": 88127,
  "ĠUkrainian": 33625,
  "Ġprofiler": 87497,
  "êµ£": 147080,
  "Ġconsidering": 12831,
  "çŃľ": 123044,
  "aben": 40308,
  "ĠFerrari": 45753,
  "ãģĿãĤĮãģŀ": 132282,
  "ĠStrand": 77302,
  "Ġamenities": 35383,
  "_filter": 8727,
  "å¤įå·¥": 102985,
  "ĠKP": 77524,
  "Ġpancakes": 79860,
  "-law": 30312,
  "Ġconducted": 13075,
  "ĠbÄĥng": 139829,
  "ĠÐ½Ð°Ð·Ð°Ð´": 133915,
  "_from": 5673,
  "Ġìļ´": 132028,
  ".debian": 82115,
  "Ġhormonal": 73118,
  "ĠBarclays": 88745,
  "Ġwhy": 3170,
  "ÑģÑĢ": 136815,
  "Ġpropagate": 57414,
  "ĠaÃºn": 77558,
  "ĠConserv": 20049,
  "Ġsettlers": 60007,
  "ðŁ¥®": 148405,
  "Ġadmins": 57095,
  "ues": 1137,
  "EventArgs": 11126,
  "ĠSN": 17924,
  "ĠLaf": 60844,
  "ĠstrSql": 52131,
  ".GetHashCode": 56001,
  "hound": 75096,
  "ĠÐ¼Ð°ÐºÑģÐ¸Ð¼Ð°Ð»ÑĮ": 140685,
  "æĹ¶éĻĲ": 114583,
  "Ip": 23378,
  "ACIÃĵN": 88675,
  "à¸£à¸§à¸Ī": 127527,
  "(tuple": 58602,
  "èħĺ": 123056,
  "åĨħåľ°": 105963,
  "Ġ=====": 30742,
  "ç±´": 119919,
  "æ¶Ŀ": 113498,
  "äĵ": 100620,
  "ĠglGet": 50951,
  "ĠUran": 79670,
  "Ġwould": 1035,
  "çĶ°": 99810,
  "Ġjuxtap": 97853,
  "ì¿Ħ": 144818,
  "handlers": 55627,
  "çĴ": 99254,
  "/engine": 82045,
  "×Ĵ×Ļ×¢": 126626,
  "Ġarchivo": 29718,
  "ãģĦãģŁãģłãģĳãĤĭ": 143450,
  "Ġlombok": 16717,
  "ellido": 24118,
  "ilih": 46968,
  "ä»ĬæĹ¥": 102242,
  "åħ¬åı¸å°Ĩ": 109400,
  "ä½ĵåĪ¶æĶ¹éĿ©": 109324,
  "}}\">{{$": 90411,
  "ï¿¥": 72198,
  "ĠLE": 11148,
  "babel": 31211,
  "æľīå¹¸": 115522,
  "-ce": 53212,
  "ĠScripts": 63621,
  "ORMAT": 98084,
  "ĠraÄŁ": 134492,
  "rts": 77724,
  "åĦ¿å¥³": 109429,
  "aira": 89780,
  "']):": 83447,
  "Ġformerly": 33733,
  "çı·": 122932,
  "IFO": 25997,
  "ãĤĴå¤īãģĪ": 138945,
  "éºĴéºŁ": 113981,
  "Ġcollapses": 86358,
  "âĶĴ": 150139,
  "åĵĪä½Ľ": 117749,
  "iat": 10358,
  "ãģ¾ãģĽãĤĵ": 124266,
  "epsilon": 31767,
  "Comparison": 33487,
  "aleza": 79152,
  "Ġcorres": 84064,
  "ä¸įå±ĳ": 115205,
  "åĬłçĽŁåºĹ": 112674,
  "åĶĩ": 102773,
  ".Public": 49139,
  "ĠÐ¾ÑĤÐ¼ÐµÑĤÐ¸ÑĤÑĮ": 143758,
  "à¸¡à¸Ļ": 135840,
  "ĠCha": 27721,
  "ĠschÃ¶ne": 91896,
  "å±ŀäºİèĩªå·±": 111528,
  "ĠBul": 13497,
  "Ġoverseas": 24357,
  "(lua": 39902,
  "Ġbiáº¿n": 128871,
  "ĠCGRectGet": 62250,
  "å¦¤": 119782,
  "Ġ{'": 5360,
  "ðŁĳħ": 146692,
  "Ã³j": 61324,
  "_prom": 47877,
  "DDL": 58781,
  "disconnect": 51992,
  "_tex": 48187,
  "ĠÐ½Ð°ÑĪÐµÐ¼": 135999,
  "ĠsetName": 27780,
  "å¤ªéĺ³": 101281,
  "áº¥p": 124614,
  "ÑĤÐµÑĢ": 56960,
  "ĠØ§ÙĦØŃ": 123961,
  "ĠViewData": 62066,
  "ĠItalians": 96233,
  "ä¸Ī": 102358,
  "Weight": 8295,
  "ØªØ£ÙĥØ¯": 139956,
  "é£İéĩĩ": 109418,
  "Questions": 35249,
  "ï»£": 144253,
  "éĽķå¡ĳ": 108852,
  "ĠuserList": 64374,
  "Ġapolog": 20419,
  "è¨Ģè¡Į": 117070,
  "hol": 8452,
  "ĠOdds": 83357,
  "á»¢": 143097,
  "Ġê·¸ê²ĥìĿĦ": 139484,
  "Ġrouting": 29058,
  "Ġdeveloping": 11220,
  "Ġnotifier": 73169,
  "ä¸ĢåĽŀäºĭ": 118407,
  ".ALIGN": 65968,
  "yang": 40245,
  "Ġtouching": 30587,
  "Ġoutrageous": 54488,
  "ĠNUITKA": 74420,
  "åı¦ä¸Ģæĸ¹éĿ¢": 104702,
  "ĠrÃ¡p": 69738,
  "_CLI": 91195,
  "shan": 82127,
  "ollections": 3107,
  "ĠCary": 91564,
  "Walking": 78516,
  "ĠAnswer": 21806,
  ".rc": 36348,
  "Ġmusical": 17795,
  "ðĿĲ¶": 146776,
  "ĠPret": 61939,
  "âĨŁ": 147794,
  "preh": 30782,
  "Ġboarded": 83469,
  "çļĦåĵģçīĮ": 106945,
  "Ġrainy": 62757,
  "\"H": 45539,
  "aci": 24464,
  "à¸Ľà¸·à¸Ļ": 141099,
  "çª®": 119195,
  "åłĨ": 100537,
  "Ġfort": 11845,
  "ĠgetPosition": 84357,
  "ĠCluster": 35380,
  "ĠHouston": 16003,
  "×Ĳ×Ļ×ł×ĺ×¨": 131338,
  "×ł×Ĵ×ĵ": 126153,
  "card": 4951,
  "ugi": 50540,
  "ului": 31648,
  "ĠDisplayName": 81783,
  "ò": 174,
  "çĶŁæ´»çİ¯å¢ĥ": 117416,
  "ÄĻd": 26531,
  "ĉsynchronized": 86889,
  "eks": 21167,
  "etrics": 13468,
  "TR": 2378,
  "áĬŃ": 147849,
  "ÐºÑĢÐ¾": 133184,
  "ĠPÃ¥": 93025,
  "CO": 8281,
  "(handles": 34895,
  "åį·": 100199,
  "Ġmesmer": 83361,
  "-destruct": 96222,
  "_payload": 32813,
  "ðŁĵ©": 146375,
  "Ġsubstit": 31334,
  "ĠInterface": 20019,
  "renc": 62834,
  "$čĊ": 81511,
  "<typename": 16544,
  ".getOwnPropertyDescriptor": 89124,
  "('('": 89856,
  "âĢ¾": 146418,
  "CASE": 40371,
  "æĥļ": 120794,
  "_block": 7113,
  "ABCDEFGHIJKLMNOP": 74445,
  "æĥħæĢĢ": 107268,
  "Ġtot": 2401,
  "à¸ģà¸§à¹Īà¸²": 125053,
  "_Exception": 48247,
  "ĠÑģÐ±Ð¾ÑĢ": 134005,
  "_aw": 54168,
  "ĠSID": 56021,
  "(Date": 19987,
  "ystatechange": 59573,
  "åĮĪ": 103670,
  "ìł´": 151019,
  "åĮĨ": 101750,
  "×ĸ×Ł": 138046,
  "Ø§ÙĤØ©": 129472,
  ".Has": 16152,
  "Sac": 93428,
  "Ġtrajectories": 85548,
  "æŃ£å¸¸": 100416,
  "Ġposed": 36160,
  "Pacific": 82615,
  "ÙĩÙĪØ§Øª": 141400,
  "ëĶī": 151433,
  "æ³¨æĦıäºĭé¡¹": 108043,
  "reten": 85885,
  "Mutation": 53998,
  "?.": 4607,
  "ç¥Ĭ": 122360,
  "ĉCreated": 84062,
  "Ü¡": 146922,
  "Parameter": 4971,
  "Ø³Ø¹Ùī": 136736,
  "è¿½ç©¶": 103035,
  "steady": 71666,
  "Ġ×ĵ×Ļ×Ł": 130774,
  "ĠKou": 75865,
  "Ġinspections": 56974,
  "ĉdir": 48532,
  "èµĽéģĵ": 110175,
  ".E": 5142,
  "Ġconsc": 13588,
  "ĠExist": 61809,
  "Ġprized": 86530,
  "alamat": 53218,
  "Shader": 13486,
  "áĥ»": 150235,
  "ĠDaemon": 92236,
  "------+": 61247,
  "ĠScout": 47535,
  "Ġ'|": 36357,
  "Ġcreat": 6056,
  "çĶ¨åĵģ": 104784,
  "ä¸įè®º": 103038,
  "ĠNan": 32142,
  "Ġfemale": 8778,
  "/.ĊĊ": 83900,
  "à¸ģà¸³à¸«à¸Ļ": 131178,
  "oogle": 2671,
  "ä¹Ŀå¹´": 113297,
  "Ġlithium": 56807,
  "BUF": 43831,
  "ĠQin": 73351,
  "çķĪ": 120118,
  "ourced": 53392,
  "ĉQString": 53031,
  "ãĪ¬": 150253,
  "Ġresidents": 10826,
  "Ġwaren": 43303,
  "ĠUSPS": 84876,
  "EC": 7498,
  ".Light": 50791,
  "_my": 35686,
  "è©±": 86077,
  "×¢×Ļ": 125551,
  "å§Ķç»Ħç»ĩ": 116573,
  "ĠØ§ÙĦØ«Ø§ÙĦ": 132606,
  "áŀ¶": 85575,
  "Ġaccusation": 64406,
  ")L": 33442,
  "anter": 80030,
  "Ġsalsa": 73214,
  "Ġfunnel": 60219,
  "ĠÑĢÐ¾Ð¼": 143724,
  "_stub": 62781,
  "_tab": 17344,
  "Ã¶nÃ¼": 139399,
  "éļ¨": 101608,
  "())))Ċ": 60131,
  "Ġemploys": 50142,
  "Ġì£¼": 55673,
  "Ġoste": 51268,
  "çĶ³è¯·": 101915,
  "åĩºæĿ¥": 99898,
  "å¤ĩèĢĥ": 112749,
  "ëĳ¿": 150902,
  "ä¸īåįģ": 105134,
  "ĠMPU": 61323,
  "ANI": 76893,
  "voke": 7621,
  "äĦ": 149392,
  "ð«Ľ": 123064,
  "Ġreloc": 74295,
  "åĿ¨": 119810,
  "å¾Īæ·±": 115846,
  "kul": 90195,
  "çķ¸å½¢": 114998,
  "{-#": 34376,
  "Ġexcavation": 96439,
  "forall": 33629,
  "Ġintellig": 59438,
  ".TH": 56841,
  "Ġkilometres": 51857,
  "Ġgamers": 34743,
  "æĸĩåĮĸå»ºè®¾": 109475,
  "ë§´": 145323,
  "Ġinventions": 84049,
  "ĠlÄ©nh": 132122,
  "ĠRED": 25810,
  "ANTED": 49468,
  ".optional": 90313,
  "ĠhÆ°á»Ľng": 128846,
  "Ġprovides": 5707,
  "Ġexcited": 12035,
  "Ġcostly": 33248,
  "MA": 4835,
  "ĠEmails": 71866,
  "ÑģÐºÐ¾Ð¼": 129743,
  "Ġallo": 62647,
  ".Elements": 68777,
  "ĉexp": 48558,
  ".blur": 87401,
  "Making": 42246,
  "-processing": 69193,
  "_GRAPH": 58360,
  ".parseInt": 13691,
  "Ġ×ŀ×Ĳ×ķ×ĵ": 128576,
  "æĶ¹éĿ©å§Ķ": 115442,
  "ĠMozart": 94669,
  "ç¥ŀä»Ļ": 113666,
  "Ġentr": 11492,
  "ãĥģãĥ£ãĥ³": 135961,
  "Ġneighbor": 9565,
  "ĉElement": 74078,
  "bsd": 51835,
  "æİ¨éĢģ": 110885,
  "ĠPremium": 25661,
  "è¡°": 101557,
  "_FP": 70981,
  "äº§": 51232,
  "Ġ\"=": 37827,
  "ĠfÃ¸r": 46483,
  "Ġexpanding": 23175,
  "Ġdummy": 17292,
  "ĠREM": 25587,
  "/Sub": 49972,
  "\\\"\",": 55853,
  "Ġawful": 24607,
  "åıªå¥½": 106170,
  "éĺ½": 122262,
  "Ġuname": 74474,
  "Ġthor": 72733,
  "èĿĺ": 123447,
  "éķ°": 119520,
  "ĠØ§ÙĦØ¯ÙģØ§Ø¹": 135988,
  "legation": 87566,
  "Ġchaired": 98106,
  "Ð·Ñĥ": 131453,
  "ãģ«ãĤĪãĤĭ": 129153,
  "ïº²": 145695,
  "Ġflowers": 19281,
  "âĻķ": 146313,
  "ç¢³éħ¸": 117178,
  "]<<\"": 66747,
  "ĠRanked": 96948,
  "ĠSP": 9256,
  "Ġluego": 60394,
  "ĠBob": 14261,
  "éĥµ": 103383,
  "å¸Ĥä¸Ńå¿ĥ": 111622,
  "à¸ķà¸³à¹ģà¸«à¸Ļ": 133578,
  "_POOL": 51924,
  "Ø±Ø¦ÙĬØ³": 133063,
  "Ġsummers": 79669,
  "à¹Ħà¸§": 125497,
  "ĉelem": 68779,
  "×¨×Ļ": 124390,
  "Ġli": 898,
  "Ġlimite": 69980,
  "Ġsudden": 10968,
  ".capitalize": 78498,
  "ĠÑĢÐ°Ñģ": 77776,
  "ĠPolicy": 10974,
  "Corporate": 86528,
  "Disconnect": 60651,
  "×ŀ×ķ×ĳ": 127391,
  "===============Ċ": 57879,
  "ĠisSelected": 61441,
  "à¸Ĺà¸µà¹Īà¸Ķà¸µà¸Ĺà¸µà¹Īà¸ªà¸¸à¸Ķ": 137472,
  "obel": 77106,
  "ä¼´éļı": 111240,
  "Ġresisted": 66314,
  "Ġleaned": 54839,
  "Ġ#čĊ": 55223,
  "ĠWhy": 8429,
  "Ø§ÙĪ": 132103,
  "CLUSION": 98669,
  "ĠStatefulWidget": 37642,
  "nota": 67217,
  "à¸«à¸§": 124694,
  "Ġì°¸": 127969,
  "ðĿĽ½": 151362,
  "ĠRows": 61706,
  "ëĳł": 144719,
  "Ġmagnitude": 25621,
  "Ġchá»£": 136625,
  ".document": 17468,
  "ocument": 1452,
  "Ġpedig": 65682,
  "/umd": 83199,
  "ager": 1409,
  "×ĵ×Ļ": 124320,
  "ashes": 14051,
  "éĢĶä¸Ń": 108748,
  "rotein": 90648,
  "Executable": 94772,
  "ä»į": 99754,
  "å¤ªæŀģæĭ³": 116674,
  "ĠThousands": 62194,
  "Ġblackjack": 57262,
  "Ġcorresponding": 12159,
  "Ġtwist": 26646,
  "æİīèĲ½": 118286,
  "à¹Ĥà¸Ľà¸£": 125311,
  "ĠMatch": 14152,
  "_not": 7913,
  "Ġnaughty": 52943,
  "_.": 4950,
  "_authenticated": 64913,
  "ĠÐŁÐ¾Ñģ": 131374,
  "cls": 18074,
  "opyright": 2171,
  "ðĿĺ³": 148762,
  "èĩ³æĸ¼": 117127,
  ".get": 670,
  "å½Ģ": 121116,
  "ĠPill": 34136,
  "()>Ċ": 98208,
  ":^": 37933,
  "ĠÐ¸ÑİÐ»Ñı": 140460,
  "æŁģ": 120070,
  "èĿĵ": 121615,
  "Ġreach": 5545,
  "pressions": 39873,
  "ç": 163,
  "Ġmoderation": 63282,
  "ĠdestinationViewController": 91471,
  "Ġobesity": 31948,
  "currently": 58202,
  "ç¾ķ": 122877,
  "çĲĨç§ĳ": 115849,
  "(statearr": 98102,
  "Ġbrushed": 61539,
  "ĠPlatz": 72055,
  "Ġverify": 10146,
  "Director": 37194,
  "æľºåĬ¨è½¦": 106152,
  "ĠAuss": 50244,
  "Ce": 42170,
  "ĠìĿ¸ê°Ħ": 133204,
  "ĠÙĪØ¨Ø§ÙĦØª": 138826,
  "ê¶Ĳ": 144828,
  "ĉRETURN": 89758,
  "ä¹ĲåĽŃ": 107396,
  "Ġcoffin": 77666,
  "Ġcoefficient": 35606,
  "Southern": 85738,
  "åĪĥ": 108675,
  "à¸ģà¸¥à¸±à¸ļà¸¡à¸²": 132134,
  "Ø¨Ø±Ø²": 134336,
  "ĠGuidance": 81561,
  ".ref": 11053,
  "çŃ±": 119110,
  "Ġnurses": 36365,
  "ĠAny": 5765,
  "ĠSolver": 68295,
  "èĻ±": 119998,
  "Polit": 96347,
  "ĠFlames": 72197,
  "Ġdemol": 35161,
  "riet": 64570,
  "ĉRoute": 47501,
  "uer": 8801,
  "Ġ];": 13084,
  ".ModelAdmin": 68119,
  "_WINDOW": 24780,
  "á¿Ħ": 150620,
  "-slide": 36457,
  "Ġsettling": 51845,
  "ĉse": 84686,
  "ĠGover": 93884,
  "×¡×¨": 126822,
  "ĠVilla": 36812,
  "Ġiron": 11001,
  "Slug": 54968,
  "Ġopciones": 75436,
  "aphrag": 94796,
  "åŀĥåľ¾åĪĨç±»": 110464,
  "]={": 36336,
  "_half": 40626,
  "Ġputas": 41824,
  "Ġrestrained": 76200,
  "Ġfolds": 60507,
  "Py": 13828,
  "à¸£à¸°à¸ļà¸¸": 134896,
  "èĩªåªĴä½ĵ": 109204,
  "ĉClass": 50889,
  "Ġastronomy": 81113,
  ".BL": 32481,
  "ä¸įåĲĪéĢĤ": 115784,
  "Ñ§": 147530,
  "Ø¯ÙĪÙĦØ©": 130360,
  ".Nombre": 71320,
  "Ġtendencies": 60455,
  "Ġautumn": 41674,
  "contenido": 76268,
  "è¸ī": 121413,
  "âĻĽ": 145251,
  "(car": 42078,
  "ĠMystic": 88525,
  ".Ref": 18369,
  "Sometimes": 31048,
  "esc": 3300,
  "ĠIndiana": 21591,
  "OO": 19499,
  "Ġ×ľ×¤×¢×ŀ×Ļ×Ŀ": 140190,
  "Ġfetch": 7807,
  "<Course": 94006,
  "ĠCENTER": 65992,
  "à¸ģà¸£à¸°à¸Ĺà¸¹à¹ī": 142237,
  "Ġcontradictions": 80423,
  "ç¨İæĶ¶": 105870,
  "CString": 63677,
  "Ġdisgrace": 63835,
  "/interfaces": 59771,
  "ç»ģ": 120001,
  "\\base": 79718,
  "ĠTá»Ń": 136690,
  ")prepare": 88002,
  "Ëĭ": 145805,
  "(KeyEvent": 67108,
  "his": 25235,
  "visa": 93533,
  "Ġunwrap": 79813,
  "Ġsit": 2444,
  "æ´ĭ": 99840,
  "×ĺ×ķ×ĳ": 135277,
  "Ġfprintf": 9377,
  "Ġevent": 1538,
  "())){Ċ": 46346,
  "Ġpunct": 31355,
  "]][": 27719,
  "Ġmys": 9717,
  "zos": 53701,
  "Ġinterfere": 39878,
  "Ġurl": 2515,
  "ĠPays": 93608,
  "à¸ģà¸±à¸ĩ": 143645,
  "å®ŀåľ¨æĺ¯å¤ª": 116493,
  "(forKey": 44957,
  "ĠMarsh": 39063,
  "_iters": 72866,
  "×Ĳ×ĺ": 130916,
  "äººäºº": 106171,
  "rasing": 96478,
  "ĠTro": 19321,
  "Ġhdf": 97045,
  "ĠOrr": 86019,
  "è¯¾æľ¬": 115222,
  "bling": 9695,
  "-down": 14875,
  "_gray": 51331,
  "-issue": 89365,
  "Ġconvicted": 23088,
  "realloc": 81590,
  "è´ŁåĢº": 103208,
  "Ġconceivable": 94783,
  "_unc": 76576,
  "/GL": 82323,
  "ĠPentagon": 34536,
  "ibase": 98746,
  "ĠÐ¾Ð±ÑīÐµÑģÑĤÐ²": 142218,
  "à·Ģ": 147878,
  "ĠÐ¾Ð¿Ð¸ÑģÐ°Ð½Ð¸Ðµ": 143696,
  "ENSION": 23636,
  "Ġchuáº©n": 129311,
  "ĠìĪĺ": 28733,
  "Ġmetodo": 58179,
  "Ð½ÑĥÐ»": 132117,
  "åįķçº¯çļĦ": 112507,
  "ĠIEntity": 91458,
  "Pure": 57613,
  "_camera": 29843,
  "Ġ'\"": 7127,
  "ØµÙĨØ¯": 137562,
  "Ø´Ø¤": 135602,
  "Immediately": 95693,
  "R": 49,
  "-unit": 60575,
  "ozy": 75423,
  "ä»ĸåıĪ": 108980,
  "ĠLowell": 95130,
  "imension": 18161,
  ".promise": 51225,
  "Ġactors": 19571,
  "ĠFence": 79963,
  "ĠMerr": 47861,
  "Ġmans": 49234,
  "ãģłãģĳãģ©": 127596,
  "akens": 70737,
  "ĠØ§ÙĦÙĨØ¸Ø±": 134430,
  "-tests": 81094,
  "(gc": 78657,
  "ĠRecipes": 44202,
  "ĠENV": 32791,
  "Ġprofits": 21856,
  ".expression": 51739,
  "Ø¥ÙĨ": 125553,
  "ĉsleep": 52533,
  "(sz": 40571,
  "ĠKont": 36866,
  "âĶ¨": 148858,
  "-BEGIN": 53945,
  "æ²īè¿·": 117924,
  "ãĥ¤": 126454,
  "ä¸Ńåħ³": 114179,
  "Ġcountdown": 48028,
  "\\Configuration": 83023,
  "Ø£ÙĪØ¶": 143357,
  "Ġtrou": 25410,
  "ĠDbSet": 31150,
  "ĠCharter": 48605,
  "_util": 18974,
  "Ġborrowers": 63388,
  "ĠOm": 18603,
  "ĉpr": 25653,
  "ãĥ¯ãĥ³": 133803,
  "èª¿æŁ¥": 115852,
  "ïº": 123806,
  "ĠUFO": 47944,
  "à¸Ńà¸¸à¸Ľà¸ģà¸£à¸ĵà¹Į": 131313,
  ":end": 25789,
  "ĠStrength": 31837,
  "Ġtowing": 88692,
  "ysize": 69359,
  "ĠAppl": 57845,
  "Ġlest": 63506,
  "ĠbaskÄ±": 138833,
  ".gf": 62864,
  "ĠØ¢Ø®Ø±": 129197,
  "ä¹Łæĺ¯ä¸Ģä¸ª": 109381,
  "åģ": 48591,
  "ê·±": 149412,
  "ĠChlor": 91379,
  "cÃ©": 49984,
  "!\")": 88783,
  "âĨ§": 149024,
  "Ġseq": 12981,
  "utton": 959,
  "Ether": 71045,
  "Ġ{//": 17154,
  ":CGRect": 26651,
  "æĪ·ç±į": 109247,
  "-commercial": 73044,
  "ëŀĮ": 133016,
  "Ġcinemat": 87022,
  "ĠÐ´Ð¾ÑģÑĤÐ°ÑĤ": 132459,
  "Ä´": 147776,
  "àªĪ": 148048,
  "à¸ªà¸±à¸į": 127777,
  "ĠRock": 9127,
  "Ġscrolls": 78564,
  "Ġembodiment": 48397,
  ":message": 91473,
  "ĠdeÄŁerlendirme": 139057,
  "tractive": 69078,
  "Alignment": 7033,
  "_keyboard": 58797,
  ".Block": 28477,
  "eguard": 81871,
  "ĠNintendo": 22799,
  "Ġfascism": 80422,
  "ä¹Ŀ": 99609,
  "ĠDá»ĭch": 134586,
  "Opera": 95501,
  "ðĿķ¾": 149890,
  "_null": 15162,
  "aginator": 33128,
  "ä¸Ĭãģ§": 132898,
  "pora": 70664,
  "Ġzak": 50315,
  "ĠHID": 61415,
  "ð£Ĺ": 123318,
  "sgiving": 31627,
  "Ranked": 94777,
  "ðŁĳ·": 148111,
  "Normalized": 79082,
  "())).": 34670,
  "ĠNano": 62951,
  "éĤĵå°ıå¹³": 111101,
  "($)": 83457,
  "__(*": 68006,
  "ãģĵãģ¨ãģĮãģ§ãģį": 124741,
  "avg": 13961,
  "_HINT": 74457,
  "æŃ£å¸¸ä½¿çĶ¨": 117461,
  "ĠEstate": 24443,
  "à¸Ľà¸£à¸°à¹Ģà¸Ĺà¸¨à¹Ħà¸Ĺà¸¢": 130391,
  "Ġbabel": 79826,
  "Ġsweat": 27466,
  "xFFFFFFFF": 22620,
  "ĠPennsylvania": 19771,
  "Ġmaths": 70708,
  "Ġdataset": 10337,
  "à¸µà¸¢à¸Ļ": 126766,
  "á¾§": 150618,
  "Ġsnd": 28612,
  "gh": 866,
  "ĠOz": 35604,
  "_to": 2346,
  ".getDouble": 57561,
  "Ġfinancing": 28542,
  "éħĿéħ¿": 117829,
  "Ġwatched": 15384,
  "ult": 494,
  "Ġcertified": 22909,
  "çĽ´å±ŀ": 111507,
  "rowad": 82287,
  ".spec": 28326,
  "essel": 35548,
  "Ã¤tig": 137186,
  "ILLISE": 58600,
  "Ġpuedo": 80815,
  "ĠBenghazi": 67768,
  ".methods": 42913,
  "è¿Ļä¸ĢåĪĩ": 108802,
  "oxic": 81229,
  "çĶµä»·": 114726,
  "Ġgypsum": 87580,
  ".con": 2862,
  "é£¨": 121094,
  "_mapping": 26930,
  "å¢ŀéķ·": 118947,
  "×¤×ĵ": 135891,
  "Ã¤tzlich": 86759,
  "Ġ\"'\");Ċ": 62349,
  "åĩºèĩª": 110434,
  "Fetch": 20714,
  "åı·åı¬": 107790,
  "Ġvaccine": 24467,
  "ĠintÃ©ressant": 141164,
  "ä¾¿æ°ĳ": 113410,
  "çŁ¢": 112681,
  "JECT": 7430,
  "/int": 31114,
  "ç®¡çĲĨç³»ç»Ł": 108635,
  "åĮ»ç§ĳ": 115202,
  "é«ĺ": 44636,
  "_ids": 8077,
  "Ġfolklore": 97869,
  "å°ıé¾ĻèĻ¾": 118170,
  "ĠÐ¿ÑĢÐ¾Ð´ÑĥÐºÑĤÐ¾Ð²": 143578,
  "ateral": 19165,
  "ĠimageURL": 89861,
  "pping": 10732,
  "ĠNPR": 44200,
  "èµĭ": 100970,
  ".isConnected": 76542,
  "Ġwhose": 6693,
  "lightbox": 98504,
  "material": 8243,
  "æłĩåĩĨåĮĸ": 105168,
  "ãŁģ": 150791,
  "à¸«à¸¡à¸Ń": 133668,
  "Social": 26317,
  "à¸¥à¸¸à¸ģ": 139749,
  "ãģĬãģĻãģĻãĤģ": 129501,
  "ĠCoupe": 80420,
  "_DIRECTORY": 43814,
  "éĤķ": 120548,
  "Ġpuzzle": 24626,
  "ĠWiFi": 33307,
  "ROT": 59218,
  "_Act": 46672,
  "lich": 6772,
  "ä¸ĭéĿ¢å°±": 110404,
  "_AUTH": 22675,
  "æĻļ": 99438,
  "Ġcorrupted": 49400,
  "umble": 22733,
  "æľĪæľ«": 114634,
  "ÃĽ": 144897,
  "äºĭåħ³": 114971,
  "åīįçŀ»": 103759,
  "propTypes": 86993,
  "à¸ŀà¸ļà¸ģà¸±à¸ļ": 141511,
  "ÐµÐ±": 49593,
  "itizen": 93134,
  "berg": 7725,
  "_PC": 39797,
  "{(": 96065,
  "ĠConvention": 25872,
  "à¸ģà¸µà¸¬": 132881,
  "-lined": 88959,
  "Ġrubber": 22674,
  "Ø³ÙĬØ§Ø³Ø§Øª": 140762,
  "_dyn": 69213,
  "ĠpageCount": 85751,
  "erva": 45865,
  "Ġmicroscope": 72657,
  "Ġgodt": 80223,
  "nard": 96932,
  "ĠgÃ¥r": 70757,
  "folder": 17668,
  "_bed": 89079,
  "ĠchÃ³": 137665,
  "uper": 3466,
  "Ġperformed": 10660,
  "Ġsharper": 95469,
  "æĽ¿ãģĪ": 132317,
  "èĬ": 44851,
  "Deprecated": 51344,
  "ĠPresbyterian": 85364,
  "Ġdiscs": 56695,
  "ÑĢÐ¸Ð½": 134105,
  "äºĭä¸ļéĥ¨": 112057,
  "ĠYam": 33554,
  "/entity": 66908,
  "Ġthrottle": 42166,
  "anything": 72154,
  "Ġ[]Ċ": 4167,
  "(aux": 45875,
  "tie": 48731,
  "Ġaccumulation": 45735,
  "Ġtex": 23112,
  "×Ĳ×ª×¨": 125586,
  "ĠVariant": 39292,
  "Ġ(...": 48967,
  "saving": 83057,
  "Ġinvaded": 63665,
  "ÑĥÐ¼Ð°": 130601,
  "ĠEVT": 93257,
  "ĠgerÃ§ekleÅŁ": 135442,
  "Ġbookstore": 78661,
  "ÙĨØªØ§Ø¦": 131463,
  "Ġassets": 11770,
  "éĺģ": 102557,
  "Front": 23395,
  "ĠTok": 21447,
  "Stone": 45860,
  "umbnails": 31312,
  "appear": 40766,
  "million": 58313,
  "_RATE": 29108,
  "BackStack": 88476,
  "Ġspr": 8151,
  "phon": 51701,
  "æĿĳ": 99277,
  "ĠDavies": 55772,
  "ÙħØ±": 124122,
  "imshow": 65447,
  "Ġdol": 21270,
  "Ġosg": 50848,
  "elf": 490,
  "/>.Ċ": 21005,
  "çµĦç¹": 110713,
  "_META": 59836,
  "ä²": 101879,
  "Ġconvenience": 19132,
  "ĠStrategies": 55519,
  "sez": 51970,
  "Ġselfish": 44643,
  "æ°´ä¸Ń": 107629,
  "LAN": 23408,
  "-session": 57181,
  "æ®Ħ": 120087,
  "resultCode": 87124,
  "InternalServerError": 55984,
  "ĠgÃ¶rd": 128056,
  "Ġ}}>{": 87715,
  "ĠCd": 83990,
  "Race": 55991,
  "Ã¡bb": 80699,
  "ĠperchÃ©": 60955,
  "ĠÑģÐ²Ð¾Ð¹": 130210,
  "à¸¥à¹Īà¸°": 135245,
  "Ġprotective": 28119,
  "ĠNewark": 64499,
  "è°Ĺ": 120809,
  "åĽŀè´Ń": 109599,
  "Ġdepletion": 91848,
  ".Strings": 89154,
  "ĠÅ¼yw": 134626,
  "Ġ×ł×ķ×¡": 125266,
  "âĵĬ": 150682,
  "çª¦": 112595,
  "Ġfederally": 79537,
  "ewise": 24350,
  "Ø±Ùı": 134795,
  "_SUP": 51631,
  "too": 36127,
  "_allowed": 42155,
  "ĠEnds": 60560,
  "ĠÑĢÐ°Ð": 24212,
  "Ġbigint": 79663,
  "Ġprocessed": 15233,
  "Ġinterpretation": 22845,
  "Ġë¨¼ìłĢ": 137769,
  "ß§": 147535,
  "Ġall": 678,
  "Ġrew": 78622,
  ".Async": 44119,
  "çİ¯åį«": 112065,
  "_cc": 28955,
  "Ġclimate": 9977,
  "Ġham": 13515,
  "ĠĠĠĠĠĠĠĠĠĠĠĠĠĠĠĠĠĠĠĠĠĠĠĠĠĠĠĠĊ": 25435,
  "ĠTob": 31756,
  "games": 34568,
  "Ġâķ": 58208,
  "ĠVader": 68409,
  "à¸Ľà¸£à¸°à¹Ģà¸Ķà¹ĩà¸Ļ": 141112,
  "å¾®åķĨ": 110127,
  "ĠExpected": 31021,
  "ĠÙĦÙĩØ°Ø§": 133310,
  "Ð¿ÑĥÑīÐµÐ½": 143778,
  "lista": 32660,
  "ðŁĶ²": 149932,
  "Sha": 62316,
  "Ġvanished": 58481,
  "ERP": 84258,
  "ĠØ¨ÙĩØ§": 128794,
  "Ġspawn": 18042,
  "ëł´": 144180,
  "çłĤæµĨ": 118514,
  "lsen": 59988,
  "ĠRichards": 52972,
  "Ġhardcore": 26604,
  "ç«¯": 78882,
  "çĶµ": 38212,
  "ĠApiResponse": 71300,
  "ĠÑģÐ»ÑĥÑĩÐ°Ðµ": 129402,
  "ï°ŀ": 151204,
  "å¾Ģå¾Ģæĺ¯": 110551,
  "ï½Ľ": 145448,
  "Ïį": 145099,
  "å¯Łçľĭ": 118861,
  "éĢĤæĹ¶": 110481,
  "/providers": 82543,
  "åĮ£": 119143,
  "Ð¸Ðº": 37722,
  "ãģĹãģ¦ãĤĤ": 126864,
  "Sorting": 71681,
  "ç§§": 117046,
  "()čĊ": 3568,
  "×¨×ķ×¤×Ĳ": 132057,
  "æĩ¦": 119518,
  "ìĦĦ": 149462,
  "Ġ×Ķ×ŀ×¢": 135072,
  "Ġtraining": 4862,
  "æĿ¾": 100180,
  "Ġproyecto": 49851,
  "Ġback": 1182,
  "æ¯ĽçĹħ": 110688,
  "ĠPUBLIC": 31416,
  "Ġglobe": 23918,
  "vant": 76182,
  "AAP": 82916,
  "ãĥĳãĥ¯ãĥ¼": 142476,
  "Ġnursing": 27356,
  "ĠCONT": 16120,
  "Ġbelievable": 91395,
  "ßĹ": 148289,
  "ĠListed": 68448,
  ".getPage": 62063,
  "Ġperpet": 21585,
  "ãģ¥ãģıãĤĬ": 142338,
  "_plate": 79366,
  "ĠGeneral": 3251,
  "ĠFurious": 92331,
  "ä¸įä¹ı": 112226,
  "_delay": 22198,
  "Ġunderstands": 30769,
  "ĠBloss": 88759,
  "=Integer": 87643,
  ".St": 7758,
  "Ġbandwidth": 33394,
  "errals": 55143,
  "ces": 1603,
  "ð¬Ĭ¤": 123082,
  "ief": 4738,
  "åĴĮæĬĢæľ¯": 108800,
  "Ġ\"\\\\": 26468,
  "Ġbriefed": 85765,
  "Ġreimbursement": 70011,
  "ĠChan": 41302,
  "×ķ×¨×ª": 125304,
  ".by": 19007,
  "][$": 24040,
  "ĠVox": 79612,
  "cheme": 8058,
  "âľ³": 145714,
  "Ġamnesty": 85135,
  "Ġrevelation": 38910,
  "Google": 14444,
  "Ġ×¢×ķ×ĳ×¨": 136554,
  "ï§©": 151499,
  "_Method": 44844,
  "Ð¾ÑĩÐ½Ð¾Ð¹": 137933,
  "çĶ¨å¿ĥ": 105952,
  "Ġrá»Ńa": 135525,
  "Ġmassac": 90058,
  "Ø´Ø§": 129637,
  "mai": 76485,
  "Ġfname": 22548,
  "éĴĵ": 103429,
  "æĸ°ä¸ī": 110021,
  "æ¾¼": 123586,
  ".pm": 40146,
  "Ġtako": 97033,
  "ĠÐºÐ¾Ð»Ð»ÐµÐºÑĤÐ¸Ð²": 143748,
  "ListItemText": 87360,
  "ernels": 42329,
  "Ð»Ð°ÑĤ": 78463,
  "á´¦": 148587,
  "æļ²": 123442,
  "æ¯Ľä¸»å¸Ń": 116546,
  "à¸«à¸´à¸Ļ": 136379,
  "Weapon": 28214,
  "ãĤĬ": 30331,
  "iot": 11098,
  ".cleanup": 87689,
  "é¢Ĭ": 103848,
  "Ġabsorbing": 69175,
  "Ġ×Ķ×¢×ľ×Ļ": 141134,
  "OLT": 35320,
  "lycer": 67490,
  "éĴľ": 122480,
  "è®©ä»ĸä»¬": 105380,
  "putc": 89040,
  "POL": 49303,
  "_UTIL": 49904,
  "ĠBalls": 70603,
  "MS": 4826,
  "çľĦ": 120098,
  "Ð¾Ð³Ð´Ð°": 124846,
  "Ġembody": 80558,
  "ãĥĮ": 138398,
  "kB": 81524,
  "ĠProducer": 43359,
  "è¿ĩå¤§": 111369,
  "Ġmáº¹": 128850,
  "Ġassaulting": 78226,
  "×§×ķ×ĵ": 129844,
  "INU": 84933,
  "rain": 29093,
  ".TabIndex": 4885,
  "Instr": 74375,
  "Firestore": 48513,
  "thickness": 90967,
  "[o": 48243,
  "Ġlocaltime": 87494,
  "RELATED": 34320,
  "Ġtanto": 32086,
  "JS": 12545,
  "ìĨİ": 147453,
  "oto": 2072,
  "vinc": 34133,
  "ĠbÃ¶lges": 142581,
  "æľīä¸Ģ": 99992,
  "]])": 29616,
  "Ġmiá»ĩ": 134213,
  "Ġfortified": 94436,
  "à»Ģ": 147377,
  "Ġtt": 17853,
  "èµĤ": 103817,
  ".transaction": 25706,
  "å§Ĩ": 101316,
  "å¼ĤæĢ§": 112880,
  "å»ºç«ĭèµ·": 110554,
  "Ġrain": 11174,
  "å¸¦éĺŁ": 112503,
  "Ġsitu": 9908,
  "ĠØ§ÙĦØ£Ø¬ÙĨØ¨ÙĬØ©": 140225,
  "]?": 49964,
  "pas": 41101,
  "ĠCardinal": 45914,
  "Ä¾": 145393,
  "<*": 78822,
  "_dict": 5243,
  "YPRE": 87823,
  "æª¢": 103205,
  "ĠDuch": 60022,
  "Ġ×Ķ×Ĺ×ķ×§": 133500,
  "son": 930,
  "ĠSends": 64402,
  "Ġcrab": 59412,
  "à¹Ģà¸ļ": 124828,
  "Ġ×ĳ×©×ĳ×ķ×¢": 139662,
  "åŃ¦æł¡": 100344,
  "ourses": 16349,
  "å®ľå®¾": 115050,
  "Ġmodification": 17030,
  "ĠGeneration": 23470,
  "èº«ä»·": 117028,
  "_statement": 37404,
  "/***": 69939,
  "orer": 14827,
  "ĠBurst": 77467,
  "_CACHE": 29138,
  "plings": 80302,
  "ĠkaÃ§": 130268,
  "Ġcitt": 71176,
  "èĢ³": 100229,
  "æĬĦè¢Ń": 114040,
  "Ġ));Ċ": 16518,
  "ĠStard": 97828,
  "Ġaffirmative": 67641,
  "next": 3600,
  "Ðł": 33504,
  "Ä±lÄ±": 52171,
  "Ġtexts": 21984,
  "ðŁĲ£": 146521,
  "ĠSpin": 40685,
  "éĽı": 119065,
  "(JSONObject": 79325,
  "dataset": 21378,
  "ĠØ§ÙĦØ§ÙĤØªØµØ§Ø¯ÙĬ": 139691,
  ".DockStyle": 29672,
  "Ġcane": 62235,
  "ĠLions": 32765,
  ".Fl": 73459,
  "Ð½Ð°Ð»": 127898,
  "æĴ¤éĶĢ": 110210,
  "ickerView": 76256,
  "ĠSkill": 27482,
  "íĪ¶": 149800,
  "Ġplural": 38498,
  "×Ĳ×Ļ×¨×ķ×¤×Ķ": 136449,
  "-cloud": 59197,
  "psi": 30765,
  ".View": 6382,
  "å·¥èīºåĵģ": 115194,
  ".getElementsByTagName": 29715,
  "ĠCFO": 93752,
  ".High": 46678,
  "ĠTá»ķng": 130017,
  "Ġsá»Ľm": 131969,
  "diet": 93842,
  "ê²¼": 144141,
  "âĿİ": 147010,
  "âĿı": 145723,
  "åıįæĦŁ": 117168,
  "ç¯ĩç«ł": 103798,
  "å¤ķ": 101003,
  "Ġvois": 99064,
  "ÆĶ": 146932,
  "ĠDoug": 31508,
  ",/": 87682,
  "ĠÑĩ": 17307,
  "æł½åŁ¹": 110898,
  ".did": 47954,
  "_datos": 87548,
  "ĠMcA": 64713,
  "*f": 54461,
  "åĲ¦å®ļ": 110181,
  "ç»Ļ": 89012,
  "Ġrepost": 94187,
  "ckett": 84829,
  "Ġridicule": 93747,
  "ãģĭãĤī": 53931,
  "å°Ĩåľ¨": 104743,
  "ĠPreview": 31241,
  "GPIO": 26337,
  "Ġkarde": 136159,
  ".cost": 39166,
  "resas": 37954,
  "Shop": 19795,
  "Ġxv": 83411,
  "ä¸Ģèµ·æĿ¥": 109315,
  "ĠgetP": 57720,
  "uthor": 1553,
  "Ġproclaimed": 61911,
  "Ġtome": 84742,
  "URY": 75629,
  "Ġhurricane": 48684,
  "×¡×Ľ×Ŀ": 132738,
  "jf": 96423,
  "Ġupgrades": 31614,
  "ĠDone": 27357,
  "ëĶ": 66498,
  "Ġtriggered": 22119,
  "½Ķ": 65291,
  "ìĥĮ": 144513,
  "æĬĵèİ·": 110459,
  "Ġethanol": 61672,
  "Ġacad": 10406,
  "_hide": 49735,
  "CONTEXT": 98365,
  "ĠsÃ»r": 96617,
  "áī¢": 150495,
  "Ġvolont": 97633,
  "Ġaltijd": 87769,
  "Av": 9865,
  "å¿ĹæĦ¿æľįåĬ¡": 107611,
  "é³Ħ": 119516,
  "-desktop": 79249,
  "Ġemergence": 48079,
  "oland": 96440,
  "ĠWorksheets": 76179,
  "×ª×§×ĳ×ľ": 135127,
  "ðŁı¥": 146374,
  "ë·": 124579,
  "éĿĴæĺ¥æľŁ": 118623,
  "_list": 2019,
  "-language": 43558,
  "()),": 11858,
  "ĠHttpClientModule": 53649,
  "çľŁå®ŀ": 100267,
  "ĠĠĠĠĠĠĠĠĠĠĠĠĊĠĠĠĠĠĠĠĠĠĠĠĠĊ": 34642,
  "ĠVolvo": 67252,
  "Ġ×ľ×Ķ×ĳ×Ļ×Ĳ": 137960,
  "Ġkidneys": 80860,
  "ãĮ¦": 148459,
  "nings": 38469,
  "igans": 75757,
  "Ġglued": 78115,
  "-Line": 91536,
  "Ġelectric": 9072,
  "Ell": 42710,
  "à¸Ĺà¸Ķ": 128075,
  "linewidth": 57212,
  "å»ł": 103360,
  "oral": 9819,
  "Ġhelper": 13137,
  "Ġharmful": 27756,
  "Ġsore": 35266,
  "æĿ¥èĩª": 101919,
  "çı«": 122572,
  "ĉactual": 88814,
  ".swift": 13290,
  "_RADIUS": 60226,
  "ĠSchwarz": 86028,
  "Ġ!": 753,
  "Ġcheating": 41723,
  "Ġsubstitute": 27679,
  "ŀĭ": 23781,
  "SU": 59782,
  "æīĢæıĲä¾ĽçļĦ": 113460,
  "Ð´ÐµÐ»": 57930,
  "Ġexercises": 22932,
  "æī¿åĬŀ": 106626,
  "é£İéĻ©": 101052,
  "ĠperÃŃodo": 86624,
  "åĪĽä¸ļæĿ¿": 108301,
  "è¼ª": 109769,
  "Ġinformat": 50207,
  "Ġexceeds": 35275,
  "ĠSpecify": 47395,
  "é¸ł": 119732,
  "ãĥ©ãĤ¤ãĥ³": 127622,
  "Ġworse": 10960,
  "ĠGonz": 32455,
  "Ġjewellery": 62391,
  "è¾ĥå¤§": 104590,
  "ãĤĤãģ®ãĤĴ": 133135,
  "ĠTableColumn": 72322,
  "ç¼²": 121846,
  "Ġpero": 19438,
  "Raised": 94914,
  "Ġbitwise": 97970,
  "ĠIndex": 8008,
  "-elements": 64445,
  "Cha": 95971,
  "ĠMasters": 33622,
  ".Engine": 54424,
  "-url": 25443,
  ".RadioButton": 39247,
  "ĠFal": 22869,
  "(['": 6425,
  "_TEST": 11641,
  "(qu": 65416,
  "animation": 23050,
  "èĤĸ": 102352,
  "åį«åģ¥å§Ķ": 117552,
  "shr": 66039,
  "ĠSeks": 76394,
  "ĠDire": 44511,
  "ĠPetroleum": 71926,
  "Ay": 73109,
  "ÅĽwiadc": 136615,
  "Ġexplanatory": 92466,
  "ĉdb": 20939,
  ".thumbnail": 67374,
  "çļĦæĦıè§ģ": 105885,
  "Ġdrastically": 47763,
  ".alert": 20510,
  "ĠÐ½Ð¾Ñĩ": 142430,
  "queryParams": 80720,
  "(\"%": 4430,
  "eded": 29935,
  "_DL": 74436,
  "Ġ×ľ×¦×¤×Ļ×Ķ": 143981,
  "[rand": 68066,
  "ìŀĮ": 146948,
  "Ġsurpr": 6218,
  "ëĲł": 131396,
  "ocha": 58729,
  "ĠMiner": 89912,
  "ĠSearching": 79893,
  "ĠNested": 71742,
  "èİĿ": 122591,
  ".Go": 67131,
  "à¸Ħà¹Īà¸°": 126367,
  "dato": 71105,
  "_spec": 13594,
  "Ġporous": 93661,
  "modern": 49789,
  "ocols": 22018,
  "åĪ·æĸ°": 107444,
  "errorMsg": 76044,
  "ĠInterviews": 88072,
  "getText": 31298,
  "KHR": 81405,
  "VAL": 5594,
  "ĠLinda": 38062,
  "Ġmodest": 26848,
  "ĠÑĩÐµÐ»Ð¾Ð²ÐµÐºÐ°": 130914,
  "æ¨¡åħ·": 108517,
  "hood": 5694,
  "ĠEcc": 80660,
  "setLayout": 58270,
  "èľİ": 123188,
  "back": 1419,
  "Ġsupposedly": 32728,
  ".GetCurrentMethod": 90288,
  "ðŁİĦ": 145392,
  "â¼Ĵ": 148820,
  ".setContent": 45193,
  "ĉseq": 78561,
  "'];Ċ": 3860,
  "ditor": 68731,
  "à¹Ģà¸ģà¸´à¸Ķà¸Īà¸²à¸ģ": 141877,
  "è±¡å¾ģ": 106411,
  "ampionship": 12241,
  "é¢ĦåħĪ": 116976,
  "ĠnewItem": 47988,
  "ĠMainPage": 70076,
  "Via": 54428,
  "ĠBedroom": 32855,
  "Ġemulation": 78841,
  "ĠoldValue": 49102,
  "Ġrevamped": 95496,
  "ĉedit": 86626,
  "_FE": 43307,
  "IK": 28561,
  "Ġseemed": 9324,
  "ĠHolt": 58906,
  "ì¸µ": 137812,
  "$url": 40373,
  "åĬ¨èĦī": 109826,
  "Ø³ÙĬÙĨ": 125838,
  "æĶ¾å¤§": 106763,
  "ĠThirty": 66620,
  "ð¬£Ļ": 122145,
  "_bbox": 59390,
  "ï®¡": 149836,
  ".ptr": 38740,
  "pipes": 86720,
  "ĠSSH": 40463,
  "æľĪä¸ĭ": 115013,
  "ìĺ´": 144707,
  "ĠÐ½Ð¾Ð²": 48951,
  "ì»·": 144721,
  "ĠÐ°Ð±ÑģÐ¾Ð»ÑİÑĤ": 142751,
  "\"][": 18121,
  "Ø£ÙĨØ¸ÙħØ©": 141041,
  "Ġcreep": 27083,
  "è®©ä½ł": 102155,
  "åĨ¶éĩĳ": 112414,
  "Ã»": 29772,
  "ĠOutlook": 41058,
  ".trigger": 28555,
  "ï»ª": 144866,
  "/actions": 39121,
  "ĠBiggest": 85521,
  "éļ¾ä»¥": 104151,
  "ĠCait": 75332,
  "×Ķ×ŀ×©×ļ": 130921,
  "Ġdia": 17733,
  "SHORT": 87918,
  "Ġ×ł×ĵ×¨": 141193,
  "ĻĤ": 18535,
  "\\helpers": 43108,
  "ĠØ§ÙĦØ¹Ø±Ø§ÙĤ": 130372,
  "ðĿĴ°": 151310,
  "çĸ¾çĹħ": 101160,
  "(ex": 5463,
  "ãĥķãĥ©ãĥ³ãĤ¹": 140932,
  "LDAP": 93497,
  "ĠWww": 81210,
  "ligt": 58156,
  "Ġ×Ľ×ł×Ļ×¡×Ķ": 139860,
  "[${": 91739,
  ".sales": 73270,
  "Ġrand": 10382,
  "èıĩ": 101835,
  "Ġtimestamps": 48781,
  "=float": 33815,
  "-urlencoded": 44557,
  "ĠĠĠĠĠĠĠĠĠĠĠĠĠĠĠĠĠĠĠĠĠĠĠĠĠĠĠ": 999,
  "(location": 22677,
  "_stylesheet": 84724,
  "ĠVar": 8735,
  "ĠOverride": 38258,
  "ĠVARIABLES": 76753,
  "ĠëĦĪíĿ¬": 139616,
  "Ġmarketing": 8493,
  "icture": 3826,
  "Ġhast": 33043,
  "×Ķ×ķ×¦": 141303,
  "Managing": 98629,
  "Ġformidable": 53729,
  "<Game": 66992,
  "Ð±Ð°Ð²": 133446,
  "Ġerrone": 57789,
  "_placement": 90203,
  "rÃªt": 140104,
  "Ð¶Ð´": 128665,
  "Ġsuede": 96635,
  "Toyota": 96877,
  "ĠProvidence": 57841,
  "outputs": 41006,
  "à¸Īà¸³à¹Ģà¸Ľà¹ĩà¸Ļ": 128027,
  "æ¾¤": 115787,
  "-part": 28037,
  "Ã³pez": 85726,
  "Ġhatte": 42668,
  "_assets": 53299,
  "ĠValor": 61728,
  "ĠProstit": 52817,
  "åĤĪ": 120985,
  "Leaks": 52387,
  "Ġsuppose": 22477,
  "ĠTcp": 64876,
  "_IW": 86421,
  "itarian": 20030,
  "å¦¹": 100304,
  "Ð±ÐµÐ´": 132705,
  "Ġbreadcrumbs": 85566,
  "annotate": 91350,
  "äººåľ¨": 106164,
  "ĠUseful": 50512,
  "estone": 97933,
  "è½»è½»": 102770,
  "_MATCH": 40824,
  "segment": 23169,
  "ðŁħĽ": 151373,
  "à¸Ļà¸±à¸ģà¸ĩà¸²à¸Ļ": 127345,
  "âĶ§": 149327,
  "ç¿Ĵæħ": 113943,
  "ä½ĵåĬĽ": 109251,
  "çĨ¬å¤ľ": 113414,
  "éłĺå°İ": 115823,
  "ĉOutput": 80487,
  "Ġarchival": 93947,
  "Cd": 90200,
  "Ġemail": 2551,
  ",null": 23075,
  "èİ·èĥľ": 113482,
  "_ADD": 8581,
  "/sw": 42934,
  "ĠActivation": 49647,
  "ìī": 124136,
  "_weapon": 69475,
  "ĠCo": 3539,
  "æĭ§": 115068,
  "åĩıå°ĳ": 101940,
  "ĠSp": 3089,
  "çļĦæĸĩç«ł": 106096,
  "ðĿķª": 150257,
  "ĠsetSelected": 45263,
  "_grad": 18352,
  "ubectl": 53380,
  "ĠØ§ÙĦÙĨÙĪØ§Ø¨": 142304,
  "åºĶèģĺ": 109786,
  "é³Ĭ": 121929,
  "Ġdownright": 69952,
  "-stop": 41211,
  "Ġperiods": 18346,
  "ĠKens": 73023,
  "ĠHil": 38596,
  "orda": 57080,
  "åĢºæĿĥ": 103384,
  "Ð¾Ð²Ð°Ð½": 130832,
  "Ġscreenings": 83506,
  "ãĥŀãĥ³": 126695,
  "Joint": 40997,
  "ì¦Į": 144393,
  "Lastly": 80486,
  "ĠTeaching": 44277,
  "Channels": 35925,
  "_picker": 68230,
  "obile": 3372,
  "åħ¬åĬ¡åĳĺ": 105898,
  "ĠprÃ³": 29291,
  "ĠDiscrim": 77300,
  "è·¯æ®µ": 107752,
  "Ġ(#": 29083,
  "Ġdiz": 42286,
  "Ġcookies": 8279,
  "æİ¥è½¨": 112186,
  ".RIGHT": 51925,
  "ĉholder": 88559,
  "ëħĵ": 148633,
  "_strlen": 44288,
  "Ġprize": 21882,
  "ï¦¸": 149469,
  "çģ«ç®Ń": 106189,
  "apult": 72806,
  "Ã§o": 20210,
  "ijke": 50405,
  "Pat": 27106,
  "(',')": 91301,
  "Ġmisogyn": 94684,
  "verify": 12446,
  "Ġ×Ķ×¡": 124622,
  "Ġhoog": 98126,
  ".feature": 29591,
  "ç¨¿": 82832,
  "Ġorch": 40145,
  "/car": 65659,
  "(shell": 93558,
  ".pic": 42096,
  "Ð¾Ð»ÑĮ": 17025,
  "å¹ŀ": 121625,
  "ĠOnly": 8278,
  "-basic": 51002,
  ".ReadUInt": 91181,
  "coin": 7160,
  "Ġhousing": 11721,
  "ðŁĵ»": 147491,
  "_OPER": 27205,
  "à¸ªà¸¢": 142032,
  "_search": 10716,
  "åĨ¶": 101772,
  "Ġaggregated": 70822,
  ".generator": 56734,
  "çķ¶æĻĤ": 109336,
  "(BASE": 51746,
  "Ġambitious": 31755,
  "-pack": 56510,
  "REC": 66613,
  "Ġà²": 89434,
  "Ġbonne": 50551,
  "ĠLSB": 93310,
  "nev": 97393,
  "Ġr": 435,
  "custom": 9163,
  "ãģĮå§ĭãģ¾": 142003,
  "/": 14,
  "Ġperson": 1697,
  "Ġnoreferrer": 71604,
  ".getMax": 72369,
  "ĠÐłÐ°Ñģ": 133199,
  "×¤×Ĵ×Ļ×¢×Ķ": 139056,
  "ertation": 75304,
  ".clientHeight": 74311,
  "onde": 17231,
  "ĠFONT": 61068,
  "rah": 32507,
  ")ĊĊĊĊĊ": 63966,
  "ç«Ļç«ĭ": 115113,
  "ĠBH": 67747,
  "äºĭé¡¹": 102195,
  "å¥½ä¼¼": 116587,
  "uania": 62511,
  "ĠSilicon": 37150,
  "-serif": 27566,
  "FILES": 20209,
  "ãģª": 25770,
  "gota": 70153,
  "Limits": 94588,
  "å¸Ľ": 119914,
  "(fake": 74138,
  "ĠÙĪØ¨Ø¹Ø¯": 133593,
  "typ": 3653,
  "ĠHarding": 96493,
  "LOOK": 94428,
  "å¾·": 99462,
  "ä¸ĩåı°": 114633,
  "exports": 4986,
  "çĽ¸å½ĵ": 102084,
  "ĠThreads": 74742,
  "ĠOsman": 140411,
  "ëĮĦ": 144706,
  "æ¥½ãģĹãģ": 132202,
  "-abs": 96410,
  "Ġprobation": 45927,
  "Ġalive": 13675,
  "ĠRegulations": 48257,
  "æ´Ĺç¤¼": 118256,
  "Â»": 12992,
  "omer": 25359,
  "âĢľWell": 87825,
  "ĠDocker": 40549,
  "â¼Ĭ": 147795,
  "ĠKurdish": 41640,
  "ĠÐºÑĢÑĭÑĪ": 143616,
  "ãĤ¼": 126903,
  "Ġassemble": 41740,
  "ĠBearing": 38668,
  "quisition": 17204,
  "×©×ķ": 125477,
  "çľ¼åīįçļĦ": 110881,
  "à¸Ļà¸§à¸±à¸ķ": 143531,
  "ĠDirectoryInfo": 81688,
  "ĠskÃ³ry": 137772,
  "Similarly": 67691,
  "ĠØ§ÙĦØ¯Ø§Ø®ÙĦ": 135275,
  "æĪĸè¨±": 116521,
  "ĠDickens": 92899,
  "ìª½": 132064,
  "Ø§ÛĮ": 46072,
  "plant": 20827,
  ".aggregate": 88534,
  "Junior": 90708,
  "èĻĽ": 112246,
  "eties": 25559,
  "annie": 71076,
  "Ġtraversal": 56302,
  "Ġfractions": 64895,
  "RH": 66973,
  "bam": 80567,
  "èģ·": 107037,
  "Ġprinciples": 16170,
  "_PM": 39918,
  "Ã¤nge": 76141,
  "isol": 59923,
  "df": 2940,
  "éıĸ": 122042,
  "Ġperformance": 5068,
  "Ġfoundations": 40482,
  "assignments": 96310,
  "ĠHope": 17758,
  "_BINARY": 49754,
  "Ġtwilight": 92622,
  "reh": 11063,
  ")e": 51921,
  "Fr": 22560,
  ".readFileSync": 45346,
  "ĠváºŃt": 128853,
  "è¿ŀèĥľ": 116969,
  "(coder": 69237,
  "Ġnationalist": 51894,
  "nesday": 7316,
  "ÑıÐ·": 62984,
  "ãĤ¢ãĤ¸ãĤ¢": 142825,
  ".students": 91435,
  ".DeepEqual": 94750,
  "ê½Ŀ": 145471,
  "ĠDota": 85127,
  "(yy": 85867,
  "Ġkitchens": 65338,
  "×Ĺ×Ŀ": 132417,
  "_elems": 86217,
  "èµ·æĿ¥": 99793,
  "\">čĊ": 4424,
  "éĥ¨éķ¿": 101662,
  "èĩªçĦ¶èĢĮçĦ¶": 117537,
  "äºĨä¸Ģåı¥": 112025,
  "Co": 7339,
  "ĠGary": 23826,
  "æ¿ĭ": 123581,
  "ĠClassifier": 89186,
  "ĠDedicated": 95558,
  "Ġcompetitions": 42582,
  "Ġmuschi": 72020,
  "Ar": 6953,
  "Ġquand": 41576,
  "Boom": 94234,
  "Ġharming": 89155,
  "ðŁĺŀ": 145618,
  "sink": 66738,
  "anging": 8595,
  "åĩ¸æĺ¾": 108251,
  "ĠÐ¿Ð¾ÑģÑĤÐ¾Ñı": 127768,
  "å¨ĺ": 100103,
  "Ġâĺħ": 37234,
  "Ġdisplaying": 27940,
  "_games": 67370,
  "Eb": 82414,
  "Ġ×ľ×©×ŀ×ķ×¢": 141730,
  "ĠKuala": 86333,
  "ategies": 69388,
  "ĠÄĩe": 81431,
  "ðĿĲ¸": 146699,
  "ĠKÃ¼ltÃ¼r": 139223,
  "_booking": 65165,
  "Say": 45764,
  "ĠAccessibility": 80272,
  "Ġupdates": 8837,
  "Ġfo": 11756,
  ":block": 57628,
  "ì¿¨": 144561,
  "ĠTeams": 39613,
  "Ð¾Ð³ÑĢÐ°Ð¼": 68854,
  "ðŁİ«": 148103,
  "ĠIh": 19051,
  "å¦Ĥä½ķçľĭå¾ħ": 118919,
  "ĠCOVID": 19966,
  "ToMany": 27361,
  "åħ¥åĽŃ": 118058,
  "ä¸ĢçĽ´åľ¨": 105078,
  "â®Ł": 147692,
  "ãģ®": 15767,
  "STAR": 67061,
  "ðŁĽ¤": 149944,
  "æĿŃå·ŀ": 104130,
  "delta": 20255,
  "à¸¨": 123863,
  "ĠHentai": 92042,
  ".each": 14313,
  "à¹īà¸²": 57995,
  "aisy": 49056,
  "OrderId": 62101,
  "à¹Ģà¸«à¹ĩà¸Ļ": 125071,
  "æ·Ģ": 100611,
  "(O": 19238,
  "sole": 1546,
  "\\\"]": 75104,
  "-dropdown": 43949,
  "éĥĿ": 109473,
  "ÃŁ": 7997,
  "atum": 26253,
  "Ġrested": 65429,
  "frm": 31636,
  "OK": 3925,
  "data": 691,
  "ĠVisit": 19008,
  "ĠChatColor": 79320,
  "æŁĶåĴĮ": 112411,
  "ä¾´": 122498,
  "-bre": 91908,
  "ĠtrÆ°á»Ľc": 128371,
  "Type": 929,
  "bew": 81936,
  "×ĳ×¡×ķ×£": 133293,
  "ĠCou": 18232,
  "Ġcycling": 32062,
  ".SQL": 25095,
  "Ġrequisite": 81680,
  "å®½å®¹": 113173,
  "ĠaslÄ±nda": 138715,
  "ĠCustomer": 12277,
  "Ġbeck": 91086,
  "ç²¾åº¦": 111387,
  "fst": 49494,
  "åı¯èĥ½åĩºçİ°": 114975,
  "è¿Ľå±ķæĥħåĨµ": 118635,
  "×©×Ļ×ŀ×ķ×©": 133565,
  "ĠFOX": 44188,
  "ĠFlush": 57626,
  "ãģ§ãģĹãģŁ": 125480,
  "Ġpare": 23191,
  "ðŁĲ´": 148391,
  "quarters": 19670,
  "Ø³Ø§Ø·": 139917,
  "Ġbuyer": 25114,
  "ĠGETGLOBAL": 90854,
  "áŀĶ": 146510,
  "ëŁĲ": 150918,
  ".gnu": 12178,
  ".\";": 77355,
  "getic": 35224,
  "ĠnÃ¤mlich": 143525,
  "unn": 14931,
  "_asm": 67529,
  "Ġpredictable": 44107,
  "æľĢåħ·": 105969,
  "ä¸ĵé¡¹": 100505,
  "ĠJudges": 85855,
  "Ġtoddler": 51235,
  "Ġsegmented": 84945,
  "ĠOT": 8605,
  "ĠchcÄħ": 141637,
  "_STRUCTURE": 69906,
  "Ġfeas": 31892,
  "ĠLieutenant": 54137,
  "ä¹ıåĬĽ": 113631,
  "traction": 26425,
  "â¤«": 149686,
  "åĻİ": 121595,
  "(chain": 62591,
  "ĠTwitch": 50801,
  "(resourceName": 71077,
  "åģļä¸Ģä¸ª": 107685,
  "æĪĲä¸ºä¸ĢåĲį": 118255,
  "Ġnederland": 62269,
  "Ġbrut": 19404,
  "Thor": 97652,
  "ãĥıãĥ¼ãĥī": 143496,
  "uyáº¿t": 126033,
  "aliases": 33924,
  "ëĹĢ": 146344,
  "TOTAL": 48929,
  "-labelled": 31801,
  "ĠVIN": 83030,
  "ĉar": 69340,
  "League": 70107,
  "_dependency": 62387,
  "ç¾Ĭæ¯Ľ": 116765,
  "è¾ĥå¥½": 108062,
  "ĠMBA": 53454,
  "IALIZED": 88727,
  "(mapping": 81057,
  ".localization": 76763,
  "Ðĭ": 144855,
  "ĉstatement": 89566,
  "IBUTE": 24444,
  "ãĢĳãĢĲ": 19574,
  "ØªÙĪÙĬ": 143793,
  "åłĨæĶ¾": 117977,
  "Ġaccuse": 61642,
  "egr": 14412,
  ".terminate": 98942,
  "Ġfix": 5046,
  "ĠUtilities": 34994,
  "icons": 10670,
  "WP": 25674,
  "é£Ľãģ³": 141458,
  "afia": 48451,
  "Ø§Ø¦Ø¨": 129992,
  "×ª×¨×ķ×¤": 142128,
  "Ġdocumentary": 24954,
  "ĠAttend": 78773,
  "-outline": 29641,
  "WAIT": 71032,
  "Bal": 37889,
  "%,": 13384,
  "ĠÐ¼Ð¾Ð¶": 44483,
  "à¸ģà¸²à¸£à¹Ģà¸ĩà¸´à¸Ļ": 139464,
  "ĠLone": 75181,
  "_joint": 53158,
  "éĺ²çº¿": 112270,
  "Ġmutations": 33584,
  "_sink": 51567,
  "à¸´": 30785,
  "ï´Ģ": 148095,
  "_IRQn": 52357,
  "Ø´Ø¨Ùĩ": 135538,
  "íĭ": 124193,
  "ĠDani": 29539,
  "Ġcollective": 21750,
  "é«ĺåĩº": 112241,
  "ĉg": 3174,
  "ĠÙĨÙĬ": 137516,
  "Ġgrain": 23925,
  "Ġbrisk": 74391,
  "Ġprojectiles": 79037,
  "ĠÐ´ÐµÑıÑĤÐµÐ»ÑĮÐ½Ð¾ÑģÑĤÑĮ": 140855,
  "(TEXT": 46356,
  "Ġdestruction": 19258,
  "åŃĺåľ¨ä¸Ģå®ļ": 118454,
  "Ġhalk": 142183,
  "ĠtarafÄ±ndan": 128691,
  "_mtime": 93674,
  "éĻ¤æŃ¤ä¹ĭå¤ĸ": 107414,
  "eing": 31775,
  "çŃ¾åĲį": 110573,
  "blog": 11659,
  ")initWithFrame": 91752,
  ".getcwd": 46474,
  "Ġprevious": 3681,
  "Ġoverride": 2812,
  "Ġuncle": 37494,
  "Ġclimbed": 44419,
  "ì¹ĺë£Į": 140767,
  "×Ĳ×Ŀ": 126578,
  "Ġfatalities": 70205,
  "Ġwyst": 87564,
  "å¤´çĹĽ": 109180,
  "_shot": 81226,
  "ĠJudge": 20207,
  "×Ķ×Ļ×¡×ĺ×ķ×¨×Ļ×Ķ": 136162,
  "á»Ĺi": 84453,
  "-ton": 74635,
  "(DEBUG": 52792,
  "á»¸": 144392,
  ".freeze": 76685,
  "Ġworkflow": 28288,
  "å°ĳæķ°": 102800,
  "ocos": 41388,
  "ĉtyp": 25314,
  "éĿ¢æĸĻ": 110240,
  "Ġbladder": 61464,
  "ĠFileStream": 50771,
  "Ġfade": 15016,
  "ĠBij": 79566,
  "-Tr": 88047,
  "Ġmultis": 74737,
  ".Camera": 55000,
  "ByPrimaryKey": 45160,
  "æĳĦåħ¥": 109635,
  "åľ¨åħ¨çĲĥ": 107746,
  "ĠCat": 17358,
  "Ġblir": 57437,
  "ĠtoÃłn": 128401,
  "íĬĦ": 147760,
  "ViewState": 95026,
  "options": 2875,
  "à¸ģà¸³à¸«à¸Ļà¸Ķ": 131179,
  "åģ°": 122837,
  "ĉError": 58421,
  "Ġcul": 11695,
  "ĠCart": 13115,
  "-Language": 90765,
  "ĠbenÃ¶t": 91304,
  "Ġwarn": 8809,
  "ä¸įä»ħåı¯ä»¥": 111601,
  "bÃ©": 91074,
  "twig": 71653,
  "éªļæī°": 115313,
  "å¯Ĩå°ģ": 107949,
  "smouth": 76577,
  "VL": 30698,
  "ĠUTC": 27403,
  ".AI": 88778,
  "ĠGarner": 85988,
  "åĲĦçķĮ": 103253,
  "nten": 42469,
  "bulk": 67142,
  "Ġtreffen": 51873,
  ":selected": 54354,
  "ĠWOM": 80275,
  "ĠvÃł": 47742,
  "à¸ªà¸«à¸£à¸±à¸Ĳ": 138243,
  "éĸĭæĶ¾": 117208,
  "ĠAttr": 50943,
  "Ġys": 31810,
  "ĠAddiction": 78690,
  "uell": 41658,
  "Ø§Ø¦Ùħ": 125591,
  "ĠÙħÙĪÙĤÙģ": 138990,
  "æ¾¡": 103339,
  "Ġpiracy": 77212,
  "Êĭ": 147320,
  "parent": 3765,
  "(parcel": 85392,
  "#================================================================": 72004,
  "è¯¥æĢİä¹ĪåĬŀ": 114606,
  "Ġpuzzles": 46523,
  "æıĦ": 120865,
  "Ġling": 37072,
  "Ġrecourse": 92270,
  "Ġsvensk": 79161,
  "Ġvirus": 16770,
  "Ġpractitioner": 54372,
  "userID": 37506,
  "ãĥĥãĤ·ãĥ§ãĥ³": 128194,
  "ĠaÃ§Ä±kl": 130165,
  "ĠRelated": 24369,
  "daughter": 59778,
  "Ġhandwriting": 91709,
  "åŀŀ": 122411,
  ".Small": 90183,
  "ĠIncreased": 61597,
  "é½ģ": 122034,
  "']}</": 79708,
  "Ġdiá»ħn": 128960,
  "_json": 9455,
  "Prime": 32306,
  "Ġweird": 16283,
  "è§Ħç¨ĭ": 116033,
  "Ġcavalry": 78557,
  "cession": 25461,
  "ðĿĵĪ": 149153,
  "\")": 899,
  "ãĥĨãĥ¼ãĥŀ": 136662,
  "Ġregularly": 15502,
  "~~~~~~~~~~~~~~~~": 32543,
  "ØŃØ¨": 126381,
  "_capacity": 35603,
  "Ã´me": 98657,
  "ĠinputStream": 46456,
  "auty": 57951,
  "åªĦ": 123114,
  "{j": 71043,
  "éĥ¦": 120075,
  "Ġindulge": 67090,
  "ĠSecond": 10440,
  "à¸µà¸¢à¸§": 125163,
  "Ĥ¤": 92120,
  "ĠShadow": 24298,
  "à¸Ħà¸§à¸ļà¸Ħà¸¸": 133814,
  "ç»ŀ": 113698,
  "Ġcannabinoids": 92886,
  "Ġsoaking": 77346,
  "à¹Ģà¸Ħà¸£à¸·à¹Īà¸Ńà¸ĩ": 125507,
  "interopRequireDefault": 35364,
  "ĠØ§ÙĦØ´Ø±ÙĤ": 132051,
  "trainer": 83776,
  "æ²¡æľīå¿ħè¦ģ": 116766,
  "MMM": 86673,
  "ĠmÃ¼": 58285,
  "ĠCave": 49392,
  "Ġiceberg": 88035,
  "ĠPara": 22989,
  "ĠÐ¾ÑģÑĤ": 139856,
  "ĠÐ±ÑĥÐ´ÑĥÑĤ": 130414,
  "ĠselectedItem": 70992,
  "ĠChÃ¢u": 132690,
  "éŁĤ": 123774,
  "riend": 5039,
  "Ġ`(": 48651,
  "elry": 24044,
  "Ġauditor": 53306,
  "ipher": 10558,
  "éĢłæĪĲäºĨ": 108730,
  "UED": 69167,
  "ĉLP": 78972,
  "_moves": 45390,
  "çŃĳçī¢": 114789,
  "Ġinsisting": 59627,
  "Ġcaught": 10568,
  "ĠSik": 77349,
  "å®īå¾½": 102397,
  "Ġ<>Ċ": 20758,
  "Ġcommunication": 10535,
  "ĉll": 51500,
  "ä¸įåĬ¨äº§": 113589,
  "Ġrekl": 99080,
  "opal": 56979,
  "æ²§": 101781,
  "éģĵå£«": 102315,
  "oph": 5127,
  "Ġ#-}Ċ": 41196,
  "Ġsneakers": 67191,
  "Ġhomosex": 27308,
  "à¸ķà¹Īà¸²à¸ĩà¸Ľà¸£à¸°à¹Ģà¸Ĺà¸¨": 135792,
  "culated": 49804,
  "unicip": 13603,
  "ä¼¤å¿ĥ": 109384,
  "ãĤ·ãĥ¼ãĤºãĥ³": 141765,
  "Adjust": 38616,
  "Ġmisleading": 37209,
  ".newBuilder": 66615,
  "Æļ": 150324,
  "à¤¿à¤": 42311,
  "Ġ}}\"": 14483,
  "CLEAR": 90349,
  "éĵĴ": 120690,
  "å¾ģæĪĺ": 118811,
  "ãĤªãĥªãĤ¸ãĥĬãĥ«": 143139,
  ".MouseAdapter": 97900,
  "och": 4953,
  "Ġfeed": 5395,
  "éĺ¿": 99727,
  "å©ļç¤¼": 106340,
  "udent": 4881,
  "Ġquiet": 11340,
  "erala": 49981,
  "embro": 48910,
  "åĲĵå¾Ĺ": 114446,
  "Ġ×Ľ×¡": 133358,
  "Ġ×Ķ×¦×Ļ×ĳ": 142427,
  "opard": 31929,
  "æĶ®": 122120,
  "ĠRally": 58700,
  "ĠIntegral": 91660,
  "åĴĭ": 108806,
  "×¨×Ļ×ķ×ª": 134656,
  "ĠBret": 71677,
  "Ã¡ndez": 77046,
  "ä¹Įé²ģ": 112548,
  "ennes": 15209,
  "ĠArgumentError": 76884,
  "dB": 40955,
  "à¸Ńà¸²à¸Ĺà¸´à¸ķ": 136307,
  "Å¼ycz": 127905,
  "ĠSeiten": 82276,
  ".BadRequest": 53792,
  "èĬĥ": 122151,
  "CoreApplication": 84479,
  "Ġcryptocurrency": 26037,
  "ĠÐ¿ÑĢÐ¸Ð½ÑĨÐ¸Ð¿": 136396,
  "anse": 69654,
  "×ŀ×©×Ľ×ł×ª": 143444,
  "Ġcomplains": 88958,
  "Ġdefinite": 43770,
  "è¿ĽåŁİ": 116768,
  "ĠTimber": 44148,
  "ĉsum": 31479,
  "_buffers": 54591,
  "Ġhooked": 42670,
  "ë»Ĺ": 144976,
  "æīĭæľºåı·": 75355,
  "Ġhue": 39040,
  "çļĦè®¤è¯Ĩ": 107945,
  "Ġstatist": 20115,
  "ĠYears": 22315,
  "stasy": 72755,
  "ĠSMALL": 49197,
  "Ġhj": 35588,
  ">Nama": 86395,
  "ĠRU": 68825,
  "(push": 62982,
  "uario": 6080,
  "ãģªãģĦãģ¨": 130883,
  "ĠSOFTWARE": 8562,
  "aguay": 83142,
  ".axes": 57914,
  "POINT": 21531,
  "ãģ¤ãģ¤": 133816,
  "ä¹Łä¸įä¾ĭå¤ĸ": 117159,
  "(step": 38436,
  "/services": 22258,
  "izzy": 90491,
  "requent": 69691,
  "ĠHibernate": 63448,
  "ìĸĦ": 145209,
  "Ġvh": 67888,
  "ĠSunset": 62690,
  "ĠImportant": 43821,
  "Ġpz": 97102,
  "åħ©åĢĭ": 108435,
  "host": 3790,
  "ÅŁÄ±": 77313,
  "Ġnuru": 75111,
  "ĠThumbnail": 87792,
  "éķ±": 123685,
  "leave": 21510,
  "-caption": 58317,
  "Seq": 20183,
  "Ġcolleges": 30152,
  "çīµæīĭ": 115165,
  "åĵªäºĽ": 102224,
  "Ø³ÙĬÙĦ": 139802,
  "ç¨½": 116434,
  "æ·±": 99194,
  "Ð¾Ð²Ð°": 125536,
  "avras": 88123,
  "ĉinsert": 59847,
  "Internal": 11569,
  "(dummy": 83671,
  "å¿ħçĦ¶ä¼ļ": 116988,
  "aty": 49971,
  "Ġ×©×Ļ×©": 128756,
  "Ø¶ÙĦ": 137126,
  "Ġurged": 27832,
  "ĠLage": 95506,
  "gers": 10637,
  "=['": 13987,
  "ĠÐ·Ð»Ð¾": 143112,
  ".reporting": 76767,
  "â¤": 124165,
  "à¸ªà¸§à¸¢": 126701,
  "crest": 44451,
  "Ġadrenal": 59464,
  "æł¹æį®ä¸įåĲĮ": 117844,
  "ĠWiley": 74802,
  "×Ĵ×¢": 130712,
  "Ġdistributed": 4237,
  "Ġbrutality": 62032,
  "è¯¸å¤ļ": 102745,
  "Ġwipes": 83538,
  "Ġoverlooked": 44436,
  "Ġsub": 1186,
  "ï¯Ŀ": 149842,
  "å±Ģéķ¿": 100987,
  "ĠÑĢÐ°Ð·Ð²Ð¸ÑĤ": 127416,
  "ĠKhÃ¡": 141872,
  "ĠcrianÃ§as": 134171,
  "à¸ĭà¸µ": 129081,
  "Rev": 36184,
  "ĠShane": 49975,
  "ë§ī": 127559,
  "_CON": 4307,
  "à¸Ļà¸±à¸ģà¸¨à¸¶à¸ģà¸©à¸²": 140021,
  "olatile": 25517,
  "æĹĨ": 120479,
  "ìłĦë¬¸": 133081,
  "Ġviewed": 19334,
  "Ġhappiest": 98852,
  "Possible": 65222,
  "Ġoutlines": 49629,
  "())čĊčĊ": 79189,
  "ĠÑįÐºÐ¾Ð½": 138360,
  "Ġstu": 54754,
  "ating": 1095,
  "áº¿t": 51580,
  "×¡×Ľ": 136038,
  "Challenge": 62078,
  "ãĤĴéģ¸ãģ¶": 140097,
  ".firebaseapp": 99088,
  ",!": 76802,
  "Ġbreast": 17216,
  "ãī¿": 150775,
  "Ġbesie": 91628,
  "$ĊĊ": 66426,
  "ceed": 4635,
  "-theme": 33185,
  "ĠÙĨÙĤØ§Ø·": 142403,
  "<dyn": 92846,
  "_final": 20676,
  "escription": 2037,
  "_PERMISSION": 52788,
  "Above": 58807,
  "Stores": 69026,
  "éĺĤ": 120211,
  "/book": 52284,
  "ÄŁi": 43807,
  "Ġdav": 40769,
  "ïŃ¯": 150026,
  "å®Łãģ¯": 132987,
  "Ġtranslated": 24531,
  "ä¸İæŃ¤åĲĮæĹ¶": 105532,
  "ðŁķĲ": 147731,
  "ä¼ļåĩºçİ°": 105609,
  "å¤įåį°": 110704,
  "ĠÐ¶Ð¸Ð²": 134030,
  "/set": 47267,
  ".phoneNumber": 86044,
  "ãģĹãģ£": 127441,
  ".nombre": 32577,
  "ĠDescriptor": 55692,
  "...]": 61399,
  "ĠInterestingly": 57503,
  "_stock": 30541,
  "]));": 82921,
  "siÃ³n": 128610,
  "Ġvriend": 79782,
  "antt": 88688,
  "ï»¿#": 42272,
  "-hide": 59882,
  "ĠKeynes": 81503,
  "Leader": 52621,
  "Day": 10159,
  "REQUEST": 10794,
  "ĠEfficient": 89006,
  "ĠÐ¡ÑĤÐ°": 131486,
  "-if": 44637,
  "ĠTorres": 54407,
  "è¬Ĥ": 103780,
  "Ġbufio": 96917,
  "hapus": 67955,
  ".weather": 45627,
  "DAO": 19532,
  "(sv": 96138,
  "ĠTry": 9735,
  "ĠCGI": 63427,
  "ĠMercy": 63694,
  "ÙĨÙĩØ§Ø±": 140614,
  "ournaments": 33568,
  "Ġstove": 44015,
  "éĶ³": 123195,
  "-all": 22346,
  "=tf": 32919,
  "Ġsid": 14084,
  "doubleValue": 82078,
  "ÑģÑĤÐ²Ð°": 92971,
  "ĠÑĤÑĥÑĢÐ¸ÑģÑĤ": 141635,
  "Ġbranch": 8870,
  "ĠInvestig": 32080,
  "Ġhardcoded": 92959,
  "_pi": 47771,
  "ĠìĪĺìłķ": 88513,
  ";\">Ċ": 12143,
  "Ġbrightly": 75289,
  "Ġstrengthen": 19681,
  "Ġreplica": 36954,
  "Ġnumb": 56271,
  "Ġnella": 35922,
  "_INLINE": 32482,
  "Ġbalk": 91982,
  "Chars": 32516,
  ".side": 48631,
  "å¸Ĥå§Ķä¹¦è®°": 110384,
  "ĉnext": 28144,
  "æĢ¯": 114655,
  "æĢ¥éľĢ": 110531,
  "Ġreact": 13767,
  "æĽ´åĲįä¸º": 117394,
  "Ġprotagonist": 45584,
  "ĠØ¨Øª": 126805,
  ".atom": 80759,
  "PASS": 49792,
  ":E": 84488,
  "ĠFors": 49890,
  "ĠXT": 61866,
  "(fi": 81970,
  "æĶ¶çĽĬçİĩ": 108984,
  "ðĿĳ¡": 145556,
  "åĪĩå°Ķ": 114564,
  "_CHAIN": 70232,
  "dbh": 40800,
  "DBG": 27344,
  "å¾Īé«ĺåħ´": 112169,
  "ĠÐ¿ÑĢÐ°Ð·": 137963,
  "score": 12338,
  "ĠaÃ±os": 26748,
  "RoleId": 82991,
  "ĠAzure": 34119,
  "Ġsemiclassical": 94278,
  "ĠÐ¾ÑģÑĤÐ°": 129993,
  "Ġmiscellaneous": 92404,
  "Ġ×ľ×Ļ×¦×ķ×¨": 135181,
  "ĠEÄŁer": 135039,
  "ĠGIF": 46766,
  "éĤĿ": 119574,
  "ussy": 13447,
  "Ġturf": 58990,
  "ĠPlaza": 40307,
  "ĠyaÄŁ": 132724,
  "éĩįç»Ħ": 102712,
  "ðŁ¥º": 145806,
  "éĥ½ä¸įæķ¢": 116578,
  ":list": 78079,
  "ĠgetField": 70964,
  "åŁºç¤": 112951,
  "await": 11421,
  "çĶ¨äººåįķä½į": 109695,
  "phe": 80806,
  "ĠEnrollment": 87984,
  "×¡×ļ": 135762,
  ".getContentPane": 72620,
  "])))Ċ": 56779,
  "TestMethod": 22928,
  ".integer": 27593,
  "_SCL": 92315,
  "ðĿĻı": 149449,
  "ä¸İæĹ¶": 111766,
  "<ActionResult": 57364,
  "âĽ½": 146454,
  "Ġachievable": 88153,
  "ä¾Ŀæį®": 104282,
  "chy": 57964,
  "ĠistediÄŁi": 138396,
  "Ġlondon": 62046,
  "Ġ../": 22082,
  "gere": 87027,
  "é¹Ĭ": 118643,
  "responses": 71000,
  "åıĹè®¿èĢħ": 118048,
  "pte": 24151,
  "rawtypes": 97261,
  "æŀĦæĪĲäºĨ": 115114,
  "Ġinfection": 18873,
  "Planning": 82980,
  "ç§Ł": 99850,
  "Ġcandidate": 9144,
  "èĢ¨": 121700,
  "äº§åĵģçłĶåıĳ": 114749,
  "ĠtÃ¬nh": 128419,
  "Ġ×ŀ×©×ª×ŀ×©": 132252,
  "ilia": 24078,
  "<Boolean": 49872,
  "ĠBened": 51620,
  "Ġstartling": 67734,
  "æĺ¯ä»¥": 105599,
  "Ä±m": 37304,
  "ĠWORLD": 50891,
  "Ġweld": 32766,
  "ä¹ĭä¸ĭ": 102250,
  "Ġwav": 53807,
  "ĠPhillip": 58709,
  "thes": 6375,
  "ìĭĿ": 76337,
  ",url": 77526,
  "Ġamber": 67605,
  "ĠìĥĿê°ģ": 128646,
  "èŃ¦åĬ¡": 114985,
  "MYSQL": 54063,
  "ÅĤ": 4594,
  "Ġsalle": 70532,
  "gv": 21404,
  "ĠINT": 9221,
  "(jsonPath": 69169,
  "Ġalph": 64595,
  "ĠmÃ©d": 33930,
  "Ġwallets": 53308,
  "WORK": 18470,
  "ĠÄĳá»ĵ": 128913,
  "åİļåİļçļĦ": 118100,
  "Trans": 3167,
  "ÑĥÑĪ": 125405,
  "ĠPes": 56856,
  ".Audio": 51511,
  "Ġtransmission": 18368,
  "Ġthinking": 7274,
  "Ġlimited": 7199,
  "Ġsynthetic": 27268,
  ".hom": 93991,
  "ĠPROPERTY": 55640,
  "alian": 10480,
  "è½´æī¿": 111139,
  "Ġcanceled": 33446,
  "mb": 3096,
  "arl": 48258,
  "capabilities": 94392,
  "ĠGloves": 67454,
  "ĠvalueForKey": 48588,
  "-release": 44724,
  "enia": 58286,
  "oval": 13516,
  "iationException": 74027,
  "æ°´å¢¨": 118503,
  "Ġinserted": 21578,
  "Ġsegue": 36770,
  "chner": 85577,
  "æŁĶè½¯": 109278,
  "ì±ħ": 126712,
  "åĬĽè¿ĺæĺ¯èĩª": 117971,
  "lemen": 41307,
  "Ġnineteen": 93835,
  "Ġscroll": 9059,
  "ç¥ŀç»ı": 102398,
  ".joda": 49268,
  "èĴĲéĽĨ": 109118,
  "ì²ŃìĨĮ": 143412,
  "ĠUNU": 66925,
  "Ġespecific": 68594,
  "ĠMent": 48593,
  "Ġ-:": 52173,
  "_ATTR": 12865,
  ")});Ċ": 59845,
  ".anchor": 44363,
  "amphetamine": 84790,
  "åĩ¸": 103179,
  "Ġneutrality": 51764,
  "åı¯ä»¥éĢīæĭ©": 108325,
  "Ġmonopoly": 53201,
  "_bindings": 94516,
  "PKG": 86336,
  "_PROP": 32839,
  "Ġìľłì§Ģ": 139871,
  "Ġprayer": 22936,
  ".smtp": 94177,
  "Ġreinstall": 91861,
  "using": 970,
  "asion": 17766,
  "çļ¤": 121912,
  "lichen": 21673,
  "è¡Ĺå¤´": 108094,
  ".db": 7076,
  "éĥĲ": 122338,
  "Ġblanco": 89547,
  "ä¹Ŀåįģ": 118572,
  "ìĮ¨": 150307,
  "doing": 44259,
  "Ġfinally": 5499,
  "Ġuncommon": 40196,
  "ĠëĤĺ": 73518,
  "ScrollPane": 26122,
  "ĉNULL": 31190,
  "Ġà¸ĺà¸±à¸Ļ": 142697,
  "Ġcui": 37944,
  "(payload": 26772,
  "']:Ċ": 18381,
  "ĉcpu": 80335,
  ".Document": 26256,
  "è¿ĩç¨ĭ": 100178,
  "çĽ£": 109264,
  "ÐĹ": 35451,
  "é¢Ĳ": 113085,
  "ÐµÐ½Ð¸Ð¸": 83098,
  ".listdir": 32476,
  "rientation": 17663,
  "HOW": 60197,
  "[color": 84111,
  "ðŁĵ": 123817,
  "Ġrenewable": 32168,
  "aÃ§Ãµes": 33465,
  "æ¦ĩ": 123160,
  "ĠÐ¿ÑĢÐµÐ¿": 133693,
  "Ġappetite": 37475,
  "ĠApache": 8914,
  "à°¤": 147368,
  "Ø£ÙĦØ¹": 138687,
  "ä¸įèĪĴæľį": 110237,
  "-break": 34349,
  "_clause": 57530,
  "Ġapa": 60593,
  "lÃ¤ssig": 139377,
  "å§ĵåĲį": 66187,
  "Ġsucc": 20038,
  "onitor": 30314,
  "ðª£»": 122949,
  "âĮľ": 147037,
  "UID": 6463,
  "Ġvibes": 89849,
  "Ġresizing": 86243,
  "Sm": 10673,
  "ðĿĴĦ": 149874,
  "ĠSave": 10255,
  "åįļ": 99394,
  "-talk": 92680,
  "èĶĳ": 118851,
  "á»¹": 125093,
  "ãĤ·ãĥ£ãĥ«": 138871,
  "leen": 39662,
  "Ġabdomen": 63672,
  "ãģ¦ãģĹãģ¾ãģ£ãģŁ": 132353,
  "è½¦éĹ´": 102798,
  "-source": 30774,
  "ĠBiden": 37080,
  "Ġ×¢×ķ×ŀ×ĵ": 133274,
  "lost": 54337,
  "Connecting": 62924,
  ".getModel": 51069,
  "å¸¦åĪ°": 110184,
  "à¹Ħà¸ŀ": 136934,
  "ENCH": 64833,
  "ĠHitch": 70364,
  "ĠMediaQuery": 42591,
  "èģĮåĬ¡": 105319,
  "ĠDialogInterface": 46308,
  "ĠMelanie": 84250,
  "Ġraping": 86446,
  "exp": 4580,
  "ĠHumans": 64994,
  "å±łå®°": 117961,
  "åĢŁåı£": 111942,
  "ĠNSString": 9335,
  "aed": 61454,
  "ĠDol": 24244,
  "Ġdisconnect": 28969,
  "æĪļ": 103210,
  "Reality": 46164,
  "ĠPur": 14532,
  "ĠPackaging": 69788,
  "íķĮ": 145424,
  "áº¡nh": 125092,
  "à¸ĸà¸²à¸¡": 126008,
  "èº«åĲİ": 106374,
  "çĭĲæľĪ": 111787,
  "Ġëĭ¤ë§Į": 139293,
  "Ġconsumed": 25983,
  "rag": 4101,
  "æĭ¼æĲı": 108649,
  "ðŁİ¢": 149925,
  "è´¢æĬ¥": 111772,
  ".BooleanField": 43743,
  "_rect": 16979,
  "mans": 69891,
  "æ£±": 112769,
  "×©×ĳ×ķ×Ł": 127411,
  "Ġvalidate": 9593,
  "ðĿĹ©": 151340,
  "_tgt": 93085,
  "Played": 85930,
  "Ġgro": 10487,
  "è¿Ļä»¶äºĭæĥħ": 111553,
  "pron": 71139,
  "Ġslaves": 31660,
  "ĉcont": 92391,
  "Ġpantry": 68257,
  "Ġfast": 4937,
  "ĠARC": 70344,
  "ëĭ¼": 148634,
  "à¸ªà¸ĸà¸´à¸ķà¸´": 143503,
  "!\"Ċ": 24734,
  "Ġencount": 29797,
  "ĠÐ½Ð¸ÐºÐ°Ðº": 134212,
  "×ĺ×ķ×ª": 130482,
  "ãģ¨ãģ£ãģ¦ãĤĤ": 139697,
  "ìŃ¤": 144820,
  "ĠBrilliant": 93274,
  "ĠSpark": 26467,
  "ÙħØ´Ø§Ø±ÙĥØ©": 132623,
  "Ġangry": 18514,
  "æĢ»éĩı": 106028,
  "oreal": 89768,
  "sip": 88250,
  "ibi": 39393,
  ".Column": 6153,
  "ÙģØ¹Ø§ÙĦÙĬ": 141469,
  "grund": 59785,
  "owner": 8118,
  "Ġ'\\'": 58355,
  "Ġshuffled": 74271,
  "ÑĤÐµÐ»ÑĮÐ½ÑĭÐµ": 136566,
  "Ġcultures": 26735,
  "FromNib": 45435,
  "_accept": 35728,
  "ĠOc": 82452,
  "ĠvÃ©hicule": 140423,
  "èĮ¯": 120039,
  "RAR": 87080,
  "Ġtested": 12510,
  "_Var": 61251,
  "Plans": 97728,
  "Ġdescargar": 89658,
  "ëµĻ": 144947,
  "à´ļ": 147813,
  "Ġadvisory": 40437,
  "ĠwystÄĻp": 135052,
  "çº½çº¦": 106357,
  "Ġrarity": 58771,
  "èµ°åĩºæĿ¥": 117667,
  "ĠseÃ±": 54230,
  "Ġfacto": 60496,
  "-email": 42117,
  ",end": 42717,
  "Ġbelieved": 11585,
  "Ġcould": 1410,
  "_except": 54633,
  "ĠAuthenticationService": 94733,
  "ĠÙĬÙĪÙĨ": 135332,
  "SDL": 18847,
  "æĮĸ": 101413,
  "_Draw": 69154,
  "ĠOct": 4915,
  "èĩªè¡Įè½¦": 106043,
  "èĲĮ": 105297,
  "æ©ĺ": 114088,
  "ĠJames": 7801,
  "Variant": 20746,
  "ç«¥å¹´": 108104,
  "ĠGL": 5588,
  "æĬ¥è®°èĢħ": 114406,
  "âıļ": 150674,
  "ï©Ľ": 147801,
  "ëĵĢ": 144556,
  "ĠFreund": 77779,
  "ðĿĳİ": 145359,
  "\"$": 33732,
  "èĳļ": 120874,
  "/helper": 79285,
  "WXYZ": 70226,
  "åŁİå¢Ļ": 113847,
  "gne": 67155,
  "'n": 43786,
  "Ġbailout": 74664,
  "Ġ×ŀ×§×ĳ×ľ": 133030,
  "_Template": 57917,
  "IÃĵN": 63142,
  "åħļå»º": 102337,
  "-public": 56471,
  "ĠgiÃ¡o": 129023,
  "chw": 65845,
  "dependency": 53690,
  "æĸĩä¸Ń": 110590,
  ".Cookies": 84365,
  "ĉCG": 71651,
  "!,Ċ": 72589,
  "ä½ľé£İå»ºè®¾": 112836,
  "awns": 39996,
  "Ġarrived": 11465,
  "Ġalleging": 61446,
  "×ĳ×¡×ķ×¤×ķ": 138475,
  ".dev": 21523,
  "åĶĲä»£": 112679,
  "ĠÐ½Ð°Ð¿ÑĢÐ°Ð²": 131584,
  "Ò³": 145855,
  "body": 2599,
  "VML": 48504,
  "ĠBrake": 75261,
  "_chars": 37418,
  "éļľ": 99884,
  "enerate": 13220,
  "Ġpurchaser": 76250,
  "ä¸įçŁ¥": 102085,
  "ĠØ¹ÙħØ±": 130657,
  "ĠWendy": 54576,
  "Ġpessoa": 56630,
  "Ġ[.": 48339,
  "Ġteaches": 32892,
  "Ġ,čĊ": 55819,
  "Ġcrushed": 32645,
  "usses": 82872,
  "_RGBA": 53336,
  "Ġcerebral": 59645,
  "Ġgentle": 21700,
  "ĠSon": 11840,
  "Returned": 84804,
  "Ġbicycle": 34986,
  "_LIST": 11899,
  "åħ¨æĺ¯": 108743,
  "lest": 59144,
  "ĠProblem": 22079,
  "Ġdames": 84221,
  "Ġkuk": 93277,
  "ðŁĵ¦": 146014,
  "ĠbÆ°á»Ľc": 130203,
  "ĠCharlie": 24927,
  "å¢Ī": 123296,
  "occus": 91311,
  "MONTH": 94314,
  "grÃ¶ÃŁe": 143721,
  "','=',": 97637,
  "_Collections": 37910,
  "ĉimage": 31426,
  "Ú¯": 63732,
  "Ġ×Ĳ×Ļ×¤×Ķ": 139414,
  "à¸¢à¸²à¸§": 130383,
  "Ġpreprocessing": 63631,
  "åĲĦè¡ĮåĲĦä¸ļ": 115181,
  "Ġlineno": 85095,
  "ĠgetType": 36581,
  "å°Ĩä»¥": 108794,
  "Ġincorporate": 32335,
  "ĠpoÅ¼yczk": 137109,
  "Ġda": 2994,
  "ä½ı": 99296,
  "ĠÃ§eÅŁitli": 134150,
  "_CONTROLLER": 63995,
  "æµ·": 55135,
  "Ġcentralized": 57883,
  "æłĳ": 99613,
  "ĠRDD": 77255,
  "Cookie": 20616,
  "ðŁĳĵ": 147925,
  "ç½Ĺ": 100349,
  "](": 9533,
  ".DataTable": 93297,
  "å®¸": 115971,
  "Ġcommits": 41535,
  "ĠÐ¿ÑĢÐ¸Ð½Ñı": 141365,
  "Ġscores": 12205,
  "èĶ¬èıľ": 104451,
  ".MiddleRight": 74334,
  "ĠBoth": 11733,
  "Ġheavenly": 66598,
  "Ð·Ð´Ð°Ð½Ð¸Ðµ": 140244,
  "Ġ{ččĊ": 50474,
  "Lane": 98498,
  "_Camera": 89076,
  "iola": 80439,
  "ĠPeel": 88594,
  ".Automation": 97117,
  "-cache": 36680,
  "ĠPetersburg": 53948,
  "Ġdocumentaries": 87366,
  "æ°ĹãģĮ": 129486,
  "Ġsyst": 41245,
  "ØªØ´": 125617,
  "ĠTal": 17589,
  "_PORT": 12377,
  "\\Api": 35817,
  "ĠmContext": 38674,
  "ĠRegexOptions": 84598,
  "-driving": 59711,
  "Ġeks": 89662,
  "ĠÄĳuá»ķi": 142921,
  "gÅĤow": 133542,
  "ĠgrÃ¶": 59409,
  "Ġhose": 37500,
  "ĠCLL": 50296,
  "ÑģÑĤÐ°Ð²Ð¸ÑĤÑĮ": 132714,
  "Ġspecialization": 65879,
  "ĠsÃ¼recin": 139890,
  "ðŁ¤ł": 147737,
  "è®ºåĿĽ": 102002,
  "Ġfark": 129369,
  "Arguments": 19139,
  "åıĳæĮ¥äºĨ": 111035,
  "Ġimmoral": 78154,
  "íĹ¨": 144745,
  "Ġaddict": 38226,
  "ãģ«ãģªãĤĭ": 125473,
  "ĠHAL": 20533,
  "Ġeccentric": 54820,
  "ĠSaturdays": 75214,
  "Ġninguna": 98083,
  "ÙĨØ¹Ùħ": 133206,
  "Ġcitas": 54535,
  "æµ¦ä¸ľ": 112407,
  "_frag": 80817,
  ">tag": 40986,
  "emade": 28432,
  "æĤ£åĦ¿": 116582,
  "(proj": 92047,
  "à¹Ģà¸ªà¸²": 140739,
  "ĠChop": 63997,
  "Ġpowerhouse": 74114,
  "Ġunreasonable": 58425,
  "Ġtopic": 8544,
  "å¿«æĿ¥": 112361,
  "Heading": 31472,
  "ãĥŁãĥĭ": 141154,
  "ITAL": 33188,
  "(vc": 80698,
  "ords": 2260,
  "duÄŁunu": 140115,
  "ĠShaun": 76271,
  "ird": 2603,
  "Ġcryptocurrencies": 43974,
  "åĩıæİĴ": 103782,
  "å¼¼": 121076,
  "Ġstmt": 20020,
  "çĦĵ": 120772,
  "TexParameteri": 62374,
  "ĠerrMsg": 60078,
  "Utility": 19199,
  "èĳ¡èĲĦçīĻ": 112334,
  "ĠdÃ¢n": 128394,
  "å¢ŀæĮģ": 113070,
  "è¶ħæłĩ": 111494,
  "Ġaust": 99106,
  "Ġpháº£n": 131084,
  "Defaults": 16273,
  "-reset": 76403,
  "çĥŃå¿ĥ": 110576,
  "ÑĩÑĢÐµÐ¶Ð´ÐµÐ½": 142783,
  "Ø¬Ø§Ø¦": 139298,
  "_sparse": 71123,
  "Ġquotations": 85987,
  "ç²¾å¯Ĩ": 108740,
  "ĠÐ": 1278,
  "Ġensued": 95663,
  "gratis": 94746,
  "ĠAunt": 70222,
  "uku": 35734,
  "ĠÐ²ÑĭÑħÐ¾Ð´": 132399,
  "Ġwhere": 1380,
  "ç¡®å®ļ": 60610,
  "ìĸ´ìķ¼": 137571,
  "Displayed": 56447,
  "Ġgarant": 39092,
  "Ljava": 37924,
  "ĠPike": 68729,
  "Ġrelied": 39913,
  "ï°¼": 151208,
  "Ġphá»ķ": 132175,
  "ament": 2838,
  "Ġavez": 46492,
  "Ġpeas": 46036,
  "numeric": 19600,
  ".NULL": 90312,
  "ĉdraw": 39710,
  "Ġsilence": 21162,
  "à¸³": 75069,
  "ĠÅĽcian": 139588,
  "SetColor": 92156,
  "PubMed": 57138,
  "æĻ¯": 85254,
  "ì¼Ģ": 136133,
  "ĠKeys": 24133,
  "Ġaddressing": 27020,
  "Ġelf": 40745,
  "ðĿļģ": 151507,
  "æīĢå¾Ĺ": 103236,
  "Ġesl": 97846,
  "Ġsple": 86350,
  "oint": 781,
  "Ġpasta": 36447,
  "é¥¸": 120196,
  ".;": 15642,
  "à¸§à¸´à¹Ģà¸Ħà¸£à¸²à¸°": 137166,
  "Strict": 41857,
  "osc": 23469,
  "ĠKathryn": 91068,
  "\")(": 34600,
  ".protocol": 29851,
  "ĠKA": 88978,
  "æ´²": 100075,
  "leground": 64766,
  ".scope": 48371,
  "ĠWill": 4841,
  "PostalCodesNL": 83969,
  "Ġmg": 13742,
  ".inline": 29416,
  "Fantastic": 96732,
  "ï²¬": 151224,
  "(rc": 35429,
  "Ûĩ": 146472,
  "Ġnickel": 51249,
  "èĤ¡æľ¬": 110186,
  "é²ı": 123229,
  "().": 1005,
  "å¯ĴåĨ¬": 116612,
  "ĠFAG": 86180,
  "Ġblow": 12244,
  "åĨľä¸ļå¤§åŃ¦": 117604,
  "ë¡Ń": 139844,
  "ĠROAD": 82193,
  "ä¸īè§Ĵ": 101675,
  "ãĥĵãĥ«": 139415,
  "ê¹¬": 146005,
  "âĻ¥": 76709,
  "Ġ[&": 34336,
  "Ġnovels": 31863,
  "Establish": 68220,
  "();//": 26074,
  "à¤¬": 145799,
  "venta": 52919,
  "ĠNarr": 56869,
  "ĠÐļÐ¾Ð½ÐµÑĩÐ½Ð¾": 143194,
  "íĢ¼": 146292,
  ".font": 13990,
  "Canon": 94333,
  "å½³": 122128,
  "Ġosp": 63490,
  "ĠBristol": 43939,
  "è¯Ħæ¯Ķ": 117360,
  "ĠCompression": 66161,
  "æĽ´è¦ģ": 109954,
  "ĠAli": 14583,
  "_finder": 87402,
  "EN": 953,
  "×Ĺ×ķ×§": 127139,
  "ĠØ§ÙĦØ®Ùħ": 133448,
  ".ham": 50602,
  "ìłĦìŀĲ": 134064,
  "cities": 53009,
  "ãģ®ä¸Ńãģ§": 129855,
  "instance": 4851,
  "Ġcontested": 56210,
  "findById": 94009,
  "çļĦæĦıæĢĿ": 105855,
  "ĠYo": 43088,
  "Ġscreamed": 60366,
  "ãĤĴãģĬ": 130321,
  "<Action": 67424,
  "Ġrn": 55839,
  "Ġradial": 56836,
  "Ġcondu": 74969,
  "(Fl": 76432,
  "åħ¥å¸Ĥ": 115415,
  "(text": 7235,
  "é£İéĽ¨": 107834,
  "Schedulers": 74674,
  "ãģķãĤĮãĤĭãģĵãģ¨": 141179,
  "Ġè¿": 32181,
  "Ġembryo": 86601,
  "ĠÄ": 9843,
  "(js": 53418,
  "æĸ°ä¸Ģè½®": 108076,
  "ĠÐ¾Ð¶Ð¸Ð´Ð°": 137929,
  "ĠRESET": 53215,
  "insert": 4208,
  "ĠOilers": 89227,
  "bout": 72901,
  "åħļåĳĺ": 101100,
  "Inputs": 31946,
  "âīĤ": 149640,
  "ëĿ¼ë©´": 141172,
  "âĢĻex": 93245,
  "æĻĸ": 109117,
  ".reshape": 23096,
  "ĠÐ»Ð¸ÑĨÐ°": 135279,
  "ĠÐ¿Ð¾Ð»ÑĥÑĩÐµÐ½Ð¸Ñı": 140368,
  "ĠLebanon": 39271,
  "ĠPaso": 66329,
  "bles": 38763,
  "ĠRoku": 95992,
  "load": 1078,
  "phthalm": 80837,
  "Italian": 69111,
  "liÄŁini": 133350,
  "Ġráº±ng": 128640,
  "FormField": 45357,
  "Ġsolvent": 68896,
  "(validate": 94244,
  "Ġdecorator": 50678,
  "ÜĹ": 147281,
  "ĠDou": 17007,
  "à¸Ĥà¸Ńà¸ĩà¹Ģà¸£à¸²": 130273,
  "Ġê°Ģìļ´": 142179,
  "ernity": 33619,
  "Ġcrian": 87138,
  "Interrupt": 22528,
  "ĠEN": 5190,
  "æīĵä»Ĺ": 117370,
  "Ġtable": 1965,
  "Ġfans": 7211,
  "GetString": 48905,
  "FromFile": 43633,
  "×Ĺ×©×©": 141790,
  "çļĦå°ı": 104006,
  "æ¿ĢçĥĪ": 102896,
  "Action": 2512,
  "Ġshin": 76011,
  "ĠAssemblyCompany": 93891,
  "ĠJest": 93469,
  "_ios": 59098,
  "PreferredGap": 33691,
  ".LocalDate": 75401,
  "reamble": 86706,
  "bursement": 51073,
  "Eight": 59085,
  "áº¿": 26068,
  "åıĪè¢«": 110387,
  "ãĤĤãģ¡ãĤįãĤĵ": 127327,
  "_IEnumerator": 88913,
  ".getItemId": 56384,
  "*****ĊĊ": 78929,
  "ĠTransparent": 89868,
  "ĠnghiÃªn": 130693,
  "Ġ×ŀ×¤×ł×Ļ": 137688,
  "ĠInherits": 72467,
  "èĮĥåĨ°åĨ°": 117180,
  "ĠstatusBar": 90120,
  "ASI": 84502,
  "rÃ¤n": 134291,
  "\\Console": 44682,
  "ATERIAL": 44407,
  "å¹¾ä¹İ": 113860,
  "_matching": 70763,
  "å®¶è£ħ": 108844,
  "åºŃå®¡": 116834,
  "Ġinfra": 48176,
  "å¼ºç¡¬": 118802,
  "×ĵ×Ļ×ķ×ķ×Ĺ": 139239,
  "intptr": 91091,
  "ificaÃ§Ã£o": 81451,
  "Ú": 150,
  "ÑĢÐ¾Ðº": 127147,
  "ĠCowboys": 40305,
  "ĠFederal": 12137,
  "Pixel": 18025,
  "ë¯ĵ": 148134,
  "<Tuple": 71041,
  "ë£Į": 63256,
  "ĠbÃły": 135247,
  "Ġdistint": 73378,
  "ĠSym": 11375,
  "raries": 14876,
  "(country": 55764,
  "ĠSituation": 68378,
  "_Ptr": 81822,
  "è¿ĩåī©": 115291,
  "æľ¬åĳ¨": 107050,
  "Ġ*);ĊĊ": 62610,
  "Ġhacker": 54122,
  "à¸Ńà¸¢": 123891,
  "Ġtying": 62043,
  "Ġcruel": 27030,
  "éĺ¶å±Ĥ": 110870,
  "Ġremotely": 38429,
  "å¹³åĿ¦": 117854,
  "Ġinterracial": 52461,
  "ĠÃ¼st": 127242,
  "Ġhemp": 40963,
  "/frame": 67991,
  "æĸ°æĬĢæľ¯": 106571,
  "Explorer": 70916,
  "åĪİ": 119631,
  "ĠBeginners": 90168,
  ".Permission": 73409,
  "ĠKnown": 48286,
  "icopt": 23951,
  "Ġzombies": 47073,
  "íĸĪìĬµëĭĪëĭ¤": 133240,
  ".@": 58462,
  "ĠSlee": 46463,
  "ä¹ĭç§°": 113009,
  "å¤ĩæĪĺ": 115249,
  "_short": 16673,
  "archive": 16019,
  "-wave": 88254,
  "Show": 7812,
  "ĠMakes": 36870,
  "_continue": 75297,
  "gemÃ¤ÃŁ": 142334,
  "åľ¨æł¡": 108328,
  "ä½¿åħ¶": 102989,
  "çªĹ": 100237,
  "_ADMIN": 30460,
  "å°ıæĻĤ": 112230,
  "(params": 8917,
  "ĠVol": 10882,
  "Drop": 19871,
  "ÙģÙĪØ±": 131393,
  "trie": 8927,
  "ĠExplosion": 92686,
  "è¯Ī": 101564,
  "Ġpower": 2355,
  "Ġcentre": 12261,
  "ÂłĊ": 50950,
  "ĠsetCurrent": 53914,
  "å°±ä¼ļ": 103939,
  "ä¹Łå°±æĺ¯è¯´": 105884,
  "_lastname": 93212,
  "Ġaudio": 7699,
  "Ġexpo": 92316,
  "ĠWestminster": 46943,
  "ĠmoÅ¼liwe": 141708,
  "\">'+Ċ": 84086,
  "Ġtend": 8376,
  ".persist": 55618,
  "Ġdresser": 95537,
  "Ġjuice": 22815,
  "ĠFLAGS": 47239,
  "int": 396,
  "æŃ£éĿ¢": 106557,
  ".ResumeLayout": 15535,
  "(defun": 35394,
  "ĠBoulevard": 47440,
  "Lit": 68954,
  "Song": 33039,
  "ĠÐ³ÑĢÑĥÐ¿Ð¿": 127942,
  "ĉĠĠĊ": 38320,
  "Author": 7133,
  "Ġoutraged": 71264,
  "éĿŀå¸¸": 99491,
  "ÆĦ": 145975,
  "_TX": 18819,
  "ãģĿãĤĮ": 76593,
  "çŁ³å®¶åºĦ": 107239,
  "ĠiPhone": 12167,
  "Ġ×ĳ×Ĳ×Ļ×ł×ĺ×¨×ł×ĺ": 136795,
  "(flow": 74637,
  "iffe": 43414,
  "Ġcoordinator": 30284,
  "Ġ×Ĳ×ŀ×Ļ×ª×Ļ": 135924,
  "ĠONLY": 26687,
  "æĿİ": 100339,
  "odial": 89069,
  "à¸¥à¸²à¸Ķ": 126603,
  "ryan": 56758,
  "AGON": 67523,
  "Ġkeyed": 90529,
  "(par": 31975,
  "×©×Ļ×ª": 127479,
  "Ġjet": 16594,
  "ĠClips": 83373,
  "-existent": 59828,
  "parm": 57453,
  ";margin": 31927,
  "/cs": 91635,
  "nze": 84449,
  "éľ¾": 103786,
  "ĠakÅŁ": 140245,
  ".lower": 18073,
  "å°º": 101489,
  "ĠViktor": 76016,
  "Ġdisturb": 37223,
  "_COMMIT": 77364,
  "ĠProgramm": 73910,
  "Ġtud": 70059,
  "nearest": 69511,
  "-registration": 98698,
  "Ġacidic": 83803,
  "áıŁ": 150521,
  "ä¸īåįĥ": 110956,
  "íĴĭ": 144900,
  "çĹī": 120475,
  "Ġsavvy": 63728,
  "-single": 56687,
  "Ġrecht": 67519,
  "æĪĸèĢħè¯´": 109165,
  "hook": 20873,
  "ometric": 23375,
  "å¸Ĥãģ®": 134472,
  "âĺİ": 144519,
  "ĠÄĲo": 138119,
  "ĠKiss": 43630,
  "unate": 21769,
  "ïºĳ": 144430,
  "[data": 25726,
  "ä¹Łä¸įè¦ģ": 110239,
  "æ¯ķä¸ļ": 100262,
  "æķ¬è¯·": 114131,
  "ĠChallenges": 68678,
  "Ġreads": 15804,
  "ĠWarranty": 56529,
  "ahrain": 57958,
  "Printer": 45660,
  "Ð²Ð¾ÑĢÐ¾ÑĤ": 136482,
  "menus": 57627,
  "æ¼Ķç»ĥ": 109713,
  "Ë³": 147991,
  "ç¬±": 122835,
  "Ġ@@": 22307,
  "Ġ×¨×ķ×Ĳ×Ķ": 136409,
  "asser": 33758,
  "ð¬ª": 123164,
  "æ±¡æŁĵçī©": 110729,
  "ãıĥ": 149356,
  "_art": 36932,
  "_gradients": 96972,
  "overall": 74455,
  "ê³Ĥ": 151545,
  "æħ¢æħ¢çļĦ": 110596,
  ".Insert": 23142,
  "é¥±æ»¡": 111055,
  "nap": 6861,
  "ĠsatÄ±ÅŁ": 133980,
  "Ġandroid": 2103,
  ".sources": 81837,
  "/;Ċ": 79795,
  "Ġæ³¨æĦı": 97161,
  "ĉap": 69898,
  "Ġballot": 25853,
  "(sprintf": 40654,
  "Ġfond": 21208,
  "ç½ª": 100426,
  "åħħè£ķ": 118663,
  "Ġmentioning": 44291,
  "ï¼īï¼Į": 48272,
  "Ġplaylist": 26791,
  "Ġhurd": 47481,
  "ä¸įéĶĻ": 100832,
  "href": 13335,
  "ĠQA": 65908,
  "hti": 94848,
  "×Ĳ×ķ×ĺ×ķ×ŀ": 142708,
  "ä¸ĵç§ĳ": 108426,
  "Ġmarzo": 85528,
  "ĠParenthood": 49165,
  ".Param": 9580,
  "Ġ×Ĳ×ł×©×Ļ×Ŀ": 129403,
  "_formula": 63869,
  "ĠEis": 96880,
  "pieces": 46468,
  "á¿¡": 150622,
  "others": 58861,
  "OLOR": 8497,
  "collapsed": 42028,
  "Frank": 37326,
  "_EXTENSIONS": 97058,
  ".fs": 41355,
  "ifecycle": 19517,
  "æĮĳæĪĺ": 104036,
  "nant": 51885,
  "_Point": 52838,
  "((-": 54934,
  "ÙĤØ¶": 138472,
  "çĸ¸": 120470,
  "ĠSwagger": 79631,
  "á¾±": 149624,
  "ĠNam": 29974,
  "ÙĥØ§Ø±": 126900,
  "oner": 26576,
  "à¹Ĥà¸Ĺ": 125355,
  "ĠToys": 48381,
  "ï¥¼": 148885,
  "éł": 79888,
  "ĠÅĽrodowisk": 137539,
  "Ġsurgeons": 73172,
  "fuck": 70474,
  "phins": 39672,
  "ãģ½": 142459,
  "Ġenclosure": 57812,
  "']));Ċ": 31239,
  "à¸Ĥà¸Ļ": 126127,
  "ĠGran": 26524,
  "çļĦæł¸å¿ĥ": 104867,
  "erspective": 85091,
  "Ġcrossover": 48380,
  "ëĿĶ": 146642,
  "relationships": 85824,
  "ë£¬": 144457,
  "-American": 23264,
  "opup": 27735,
  ">t": 60735,
  "×Ĳ×ľ×ķ×Ķ×Ļ×Ŀ": 141520,
  "ajo": 18734,
  "ĠPrompt": 59501,
  "ArrayList": 14674,
  "å¦ĤæĦı": 110234,
  "Ġschedules": 36769,
  "anuts": 72752,
  "onor": 54037,
  "ä¸Ńå°ıä¼ģä¸ļ": 105506,
  "ä¿ĥéĶĢ": 108439,
  "ĠhotÃ©is": 143286,
  "Ä³": 145412,
  "éĢĤå½ĵçļĦ": 109776,
  "Ġ×ĳ×Ĳ×¨×Ķ": 140698,
  "à¸Ńà¸¢à¸²à¸ģà¸Īà¸°": 140414,
  "bp": 17808,
  "_ver": 26042,
  "Ġapprent": 45330,
  "à¸¤à¸Ķ": 140630,
  "ç¦Ĭ": 121325,
  "àºľ": 150233,
  "åħ³éĶ®æĹ¶åĪ»": 115541,
  "_attributes": 18240,
  "Ġplunged": 74703,
  "_tp": 55191,
  "bestos": 64164,
  "ÙħÙĪØ§ÙĤ": 140539,
  "Ġmilieu": 82159,
  "åĲĦåľ°": 101223,
  "ï½¨": 144792,
  "æ¥½ãģĹãģĦ": 135403,
  "Ġ\"./": 5924,
  "`)Ċ": 24183,
  "Ġ\\\"": 7245,
  "Ġlacks": 36756,
  "ĠNewspaper": 86739,
  "Ġzich": 52419,
  "èĭ»": 119823,
  "discussion": 69869,
  "_shortcode": 48259,
  "á½§": 149017,
  "quote": 2949,
  "Ġ'_'": 35302,
  "Ġ'<%=": 95095,
  "Ġadministering": 85561,
  "Ġgubern": 90422,
  "Ġdemonstrates": 31116,
  "Ġinvesting": 24965,
  "_CUDA": 94861,
  "ï¤¬": 149808,
  "Ð¿Ð¾Ð·": 136711,
  "BERS": 44116,
  "Ġenroll": 51780,
  "':''": 77562,
  "åŁºéĩĳç»ıçĲĨ": 116921,
  "íĸħ": 146599,
  "ĠÙĦÙĦØºØ§": 140537,
  "Ġadvisor": 36613,
  "rid": 1869,
  "-la": 52826,
  "ä¸Ģçľ¼": 105065,
  "Ġrecoil": 73322,
  "Captain": 61058,
  ".jupiter": 27384,
  "KANJI": 96610,
  "okane": 79586,
  "ĠEnts": 93403,
  "åŁºæľ¬ä¸Ĭéĥ½": 113850,
  "ĠSharp": 39261,
  "Ġmáº¥y": 132222,
  "ĠTrib": 20523,
  "ðŁĩ®": 145408,
  "HDR": 70288,
  "Ġpipe": 13647,
  "ÙħØ¬ÙħÙĪØ¹Ø©": 135073,
  "åĵ¦": 104170,
  "-security": 62202,
  "ignment": 3531,
  "ä¸ļæĢģ": 103160,
  "Ġecl": 59958,
  "ĠdwÃ³": 134451,
  "Ġstruggles": 27870,
  "áŀĻ": 146837,
  "ä¸¤ç§į": 101441,
  "ĠphÃ©": 130223,
  "Ġsympathy": 45984,
  "erea": 67109,
  "itivity": 18055,
  "Ġmicroscopic": 88990,
  "ë©İ": 146213,
  "è¾Ĳ": 102597,
  "Ġtaxed": 71415,
  "ĠØ¥Ø°Ø§": 128754,
  "åĵģ": 24442,
  "ä¸įå¦¨": 107303,
  "çĿ«æ¯Ľ": 116005,
  "×ŀ×ĺ×ķ×¡": 140913,
  "emand": 20096,
  "åįİä¸º": 104641,
  "-trigger": 57987,
  "-Series": 91731,
  ".wallet": 59211,
  "×¢×¨×ķ×¥": 136062,
  "Ġconcession": 68473,
  "////////////": 16862,
  "Ack": 55559,
  "Ġliqu": 11784,
  "éľ¸çİĭ": 115560,
  "Ġproblem": 3491,
  "Ġsemiconductor": 86736,
  "å¸": 13512,
  "Ġbá»ı": 129017,
  "ĠÐ¿ÑĢÐ¾ÑĨÐµÐ´ÑĥÑĢ": 136921,
  "vocab": 86847,
  "Ġfootprint": 42872,
  "Ġensuring": 22573,
  "ç²īèī²": 116011,
  "åŃŁ": 104600,
  "ĠScenes": 83183,
  "ĠDeadpool": 93224,
  "ĠHO": 30250,
  "lashes": 46545,
  "ĠBroker": 52701,
  "å®ļå±ħ": 116208,
  "()]": 26556,
  "-test": 16839,
  "Ġversatile": 31945,
  "anness": 82033,
  "ĠÐ³Ð¾ÑĢÐ¾Ð´Ðµ": 138462,
  "enuous": 82022,
  "âĿ§": 146379,
  "Ġbolt": 31842,
  "æĸ¹ä¾¿": 101147,
  "ĠÙĪÙĬ": 128306,
  "Ġphy": 36455,
  "à¹Ħà¸ķ": 127835,
  "hide": 8559,
  "â§ª": 149689,
  "(fb": 94034,
  "Ġthan": 1091,
  "ĠLOL": 55333,
  "éĶľ": 121220,
  "Selection": 11177,
  "èĶ¡": 104676,
  "ĠINCLUDING": 16092,
  "ĠCanter": 74893,
  "Ġreplacements": 53055,
  "Ġparses": 70835,
  "à¸ŀà¸¥à¸±à¸ĩ": 127907,
  ".Schedule": 87081,
  "å»Ĭ": 101701,
  "åħ¨çĲĥåĮĸ": 108153,
  "Ġtournaments": 39061,
  "ĠBIND": 91370,
  "äº¿ä¸ĩ": 116683,
  "Ġcolored": 27197,
  ".TrimSpace": 90790,
  "è®¸å¤ļ": 100694,
  "î": 170,
  "æľīåĩłä¸ª": 112485,
  "ĠÑĥÐ½Ð¸ÐºÐ°": 140511,
  "_NT": 76575,
  "ï§¶": 148136,
  "ugin": 3631,
  "ĠíİĺìĿ´ì§Ģ": 92889,
  "éł»": 103880,
  "ĠØ§ÙĦØ£ÙĪØ±ÙĪ": 135264,
  "ewear": 98128,
  "ĠÐ¸Ð½Ð¾ÑģÑĤÑĢÐ°Ð½": 143059,
  "ĠdÃ©cision": 138828,
  "ĉĠĠĠĠĠĠĠĠĊ": 88901,
  "Ġ(()": 66647,
  "Assoc": 98628,
  "(actions": 49254,
  "ĠBrendan": 55843,
  "ĉRect": 97014,
  "Ġarmed": 17445,
  "Ġwars": 24936,
  "ĠNigerian": 54333,
  "ĠvidÃ©": 39638,
  "(insert": 60586,
  "à¸§à¸±à¸Ĵà¸Ļ": 128064,
  "Ġarticle": 4549,
  "Ġpearls": 91632,
  "êµ³": 144239,
  "Ġstunning": 19850,
  "æĥħåĨµæĿ¥çľĭ": 118242,
  "ä¸´": 99635,
  "ĠDeepCopy": 75931,
  "ĠFixedUpdate": 86602,
  "çĻ¾ä¸ĩ": 105574,
  "ĠMonday": 7014,
  "Ġcrunchy": 94233,
  "èı²å°Ķ": 116236,
  "×Ľ×ķ×¨": 133311,
  "Ġkiss": 21057,
  "Ġznal": 141024,
  "_pes": 92195,
  "ä¿µ": 120426,
  "Ġ×¨×ĳ×ķ×ª": 131674,
  "ee": 2127,
  "ĠÙĥØ§ÙĦ": 133394,
  "indic": 85084,
  "ĠØ§ÙĦØªØ±Ùĥ": 135542,
  "ĠTexture": 18757,
  "istrict": 8391,
  "ĠÄĲá»ĵng": 130717,
  "ĉadmin": 64394,
  "_fs": 34470,
  "Ãºa": 89639,
  "åħ¬æ°ĳ": 105618,
  "æĸ½å·¥åįķä½į": 117027,
  "Ġpaw": 76838,
  "ĠÑĤÐ°Ðº": 49845,
  "ollectors": 29751,
  "âĴ»": 148788,
  "Ġhuge": 6765,
  "åĵŀ": 120136,
  "ynam": 11440,
  "ĠLI": 7555,
  ")],": 25035,
  "Ġdetachment": 99077,
  "_HASH": 32309,
  "Ġmisdemean": 50626,
  "ĠCs": 67332,
  "retorno": 96814,
  "ĠÐ¾ÑģÐ¾Ð±": 127071,
  "åĪĽéĢł": 100211,
  ">V": 50700,
  ".white": 15684,
  ".Before": 31153,
  "åģıç¦»": 118879,
  "athi": 66531,
  "Sounds": 58050,
  "Ġcooking": 17233,
  "è¿İæİ¥": 106748,
  "Ġ×ĳ×Ļ×Ĺ": 140991,
  "logic": 24225,
  "è¯ĨåĪ«": 102450,
  "printer": 62956,
  "ĠcÃ¼mle": 143990,
  "Ġhttp": 1758,
  "SESSION": 6302,
  "ĠAdam": 15037,
  "-images": 50991,
  "-pill": 88387,
  "çķĢ": 119864,
  "_PUR": 79006,
  "ĠÃŃnd": 143282,
  "èªªæĺİ": 106982,
  "çĦľ": 121040,
  "æ¸ħåįİ": 103269,
  "ĠSpaceX": 61924,
  "--}}Ċ": 27220,
  "_slow": 82447,
  "à¶ŀ": 149541,
  "Ġ?>ĊĊĊ": 70193,
  "/op": 52000,
  "Ġ{ĊĊĊĊ": 70180,
  "lette": 9809,
  "eken": 53894,
  "Formats": 44599,
  "ĠTeuchos": 85089,
  "è¿ĺåĮħæĭ¬": 114735,
  "popular": 43248,
  "íĤµ": 144926,
  "ĠÑģÐµÑĤ": 137528,
  "ĠChung": 87325,
  "ĠÄĳÃ²i": 138585,
  "tek": 42713,
  "Ġ...\\": 98760,
  "æĨİ": 119066,
  "TypeName": 39429,
  "._": 1436,
  "ĉPy": 67363,
  "_TextChanged": 45536,
  "Ġalthough": 7892,
  "ìĪį": 144574,
  "ĠLuo": 66383,
  "á»Ļi": 124489,
  "_sites": 68600,
  "obb": 20415,
  "Ġlush": 57267,
  "-Benz": 62221,
  "Ġrenamed": 27280,
  "ĠSophie": 59310,
  "Ġ×ĳ×ŀ×§×¨×Ķ": 133664,
  "à¦¯": 146834,
  "(QtCore": 52187,
  "_round": 29896,
  "ĠFant": 19663,
  "ĠÐļÐ¾Ð»": 137686,
  "()<<\"": 69757,
  "_cells": 37796,
  "ãĪŃ": 150768,
  "ĠInfrastructure": 44487,
  "Ġvastly": 52008,
  "Ġdirecting": 44990,
  "ï³«": 151229,
  ".basename": 36992,
  "Ġincorrectly": 43347,
  "ĠÐ·Ð°Ð²Ð¸ÑģÐ¸ÑĤ": 139182,
  "quete": 60354,
  "ĠMaple": 43470,
  "Ġcapitalize": 52725,
  "Ġappliances": 33702,
  "çĲĨè§£": 101128,
  "×ĳ×Ļ×Ŀ": 125505,
  "Ġbadge": 23961,
  "(\"&": 34866,
  "Ġ×ł×Ľ×ķ×Ł": 131348,
  "Ø¬Ø©": 125168,
  "è®¾æĸ½": 100725,
  "Ġ'\">'": 50446,
  "Streamer": 80063,
  "possible": 10031,
  "æľīåĪ©äºİ": 104659,
  "Ġformulated": 59294,
  "íĸ¤": 149802,
  "Ð»ÐµÐ½Ð¸Ðµ": 55792,
  "æ´¹": 120220,
  "Ġappart": 73656,
  "anity": 38270,
  "changing": 51713,
  "á´ĸ": 147369,
  "Wrapped": 67795,
  "Opts": 43451,
  "tracker": 50395,
  "-enh": 83082,
  "Ġlun": 31973,
  "Ġholster": 97951,
  "à¹Ģà¸Ĥà¹īà¸²à¹ĥà¸Ī": 131734,
  "Ġverschill": 91864,
  "ĠÃ¶d": 127554,
  "gate": 24601,
  "orneys": 26812,
  "ACLE": 74701,
  "Ġ×Ķ×§×¨": 136021,
  ".Models": 10356,
  ".renderer": 40152,
  "ĠznalazÅĤ": 141026,
  "ĠPaula": 61153,
  "$('.": 18722,
  "Ġreplacing": 24891,
  "ouse": 1530,
  "æĥľ": 100918,
  ".keyword": 73911,
  "-wheel": 61627,
  "Ġregulators": 39142,
  "Ġsymbol": 7735,
  "ĠDie": 8408,
  "spots": 67010,
  "à¸ŀà¸±à¸Ļà¸ĺà¹Į": 126152,
  "ĠTiffany": 67473,
  "æ·±åĪĩ": 114463,
  "Ġ×¡×Ļ": 128497,
  "COM": 8696,
  "ONY": 52275,
  "osas": 86809,
  ".Current": 11517,
  "ĠTrades": 95780,
  "×ŀ×ĵ×Ļ×ł×Ķ": 132737,
  "×Ĺ×§×Ļ×¨×Ķ": 142305,
  "Ġsublicense": 28787,
  "åīµä½ľ": 118478,
  "DL": 16524,
  "ØªØ£Ø«ÙĬØ±": 133877,
  "æĦ¿æľĽ": 103455,
  "èĨ»": 121920,
  "ĠreprÃ©sent": 90578,
  "ĠsetDescription": 68325,
  "opacity": 20570,
  "Ġfinely": 60702,
  "Ġviolence": 9170,
  "Ġlab": 10072,
  "Ġprivacy": 12345,
  "æŀĹ": 99463,
  "ĠgetUsers": 77569,
  "Ġlsp": 98679,
  "Ġschematic": 67044,
  "WhiteSpace": 32683,
  "Ġincremental": 52299,
  "ĠEXEC": 62247,
  "AllowAnonymous": 99109,
  "Ġevenly": 41047,
  "ä¨°": 150811,
  "å¤ªä¹ħ": 116815,
  "-imm": 63583,
  "é©¬åĪº": 118773,
  "(meta": 45119,
  "ĠRobot": 25860,
  "Ġcooper": 21676,
  "powered": 51516,
  "_locator": 75344,
  "ĠInputs": 46281,
  "ï©¡": 148826,
  "_embed": 24007,
  "èĢĥãģĪãĤĭ": 134647,
  "ëĪĹ": 146289,
  "æ·±åħ¥äººå¿ĥ": 118141,
  "Delay": 20039,
  "Ð½ÑĭÐ¼Ð¸": 128481,
  "%f": 87974,
  "æĳĦåĥı": 109359,
  "ueur": 78523,
  "æ¿¯": 121942,
  "ĠMeta": 15819,
  "ĠGods": 43775,
  "æĹ¦": 101175,
  "åħ¬å¸ĥ": 101274,
  "ĠÐłÐ°Ð·Ð¼ÐµÑĢ": 143040,
  ".variant": 78655,
  "ongyang": 56898,
  ".SET": 41267,
  "ĠAMD": 24311,
  "phem": 59941,
  "webdriver": 95477,
  "Ġaug": 19303,
  "_INTR": 43661,
  "Ġoutsiders": 72189,
  "á»Ļng": 124761,
  "Ġstockings": 75605,
  "Ġdp": 11329,
  "ĠLoginComponent": 59754,
  "à¸Ĥà¹īà¸²à¸¡": 135217,
  "ĠCTL": 86886,
  "Ð¸Ð½Ð´Ð¸Ð²Ð¸Ð´ÑĥÐ°Ð»ÑĮÐ½": 138153,
  "-format": 38380,
  "Ġboldly": 94929,
  "Ġsmith": 76721,
  "ĠHij": 67990,
  "Ġidiots": 79033,
  "åĬĳ": 119016,
  "Ø¹Ø§Ùħ": 127366,
  "ĠPawn": 82871,
  "ĠEQUI": 85399,
  "×ł×ĵ×¨": 136228,
  "Ġláº¥y": 129483,
  "ä»Ģä¹Īäºĭ": 110400,
  "Ġkeyword": 16174,
  "ĠformData": 27977,
  "ĠATV": 95336,
  "[$_": 96980,
  "dt": 8047,
  "éĻĽ": 103663,
  "Putting": 97904,
  "Ġhardware": 11773,
  "ĠLazar": 86158,
  "èİ³": 120308,
  "(ui": 26230,
  "eee": 34063,
  "è°ĥè¯ķ": 110760,
  "Ġdevs": 80069,
  "è¨Ģ": 77144,
  "ĠMorrow": 86274,
  "-Cs": 78222,
  ".sin": 16318,
  "æĶ¶æ¬¾": 116842,
  "à¸ķà¸£à¸²": 127756,
  "UnderTest": 84662,
  "-to": 4686,
  ".getData": 20990,
  "_named": 71834,
  "Pen": 28205,
  "ëĸ±": 148636,
  "ÙĪØ§": 123920,
  "æīĵäºĨ": 106677,
  "_flux": 66661,
  "ĠSeasons": 67200,
  "ÅŁ": 7222,
  "ĠNos": 49997,
  ".prefix": 38543,
  "Ġarous": 74023,
  "Ġamateurs": 75550,
  "cheid": 57926,
  "mps": 93470,
  "_macros": 85904,
  "çļĦåĬŁæķĪ": 111376,
  "à¸¡à¸Ļà¸¸à¸©à¸¢à¹Į": 135843,
  "Harness": 74248,
  "Ġnerve": 30915,
  "ð¬Į": 122618,
  "Ġä½¿çĶ¨": 85658,
  "èĤ¡ç¥¨": 104023,
  "_edges": 28026,
  "ãĤ¨ãĥªãĤ¢": 138966,
  "èŀĤ": 121423,
  "ç§°åı·": 102883,
  "ĠBang": 16914,
  "ĠwÅĤaÅĽc": 140618,
  "ĠÃ¶ÄŁrenci": 135992,
  "ivicrm": 96752,
  "å°ĳå¥³": 105336,
  "å«ģç»Ļ": 112703,
  "ĠaprÃ¨s": 41038,
  "-leg": 61123,
  "áĪ¥": 149555,
  "çĻ": 22859,
  "dx": 12719,
  ".group": 6175,
  "ĠDess": 69496,
  "ĠCreek": 23198,
  "Ġmerch": 21733,
  ".Fill": 19495,
  "æ¼Ķç¤º": 113645,
  "ä¸ī": 44991,
  "Ġ×Ľ": 123845,
  "ĠØ£ÙĤÙĦ": 135761,
  "ãģıãģ¦": 130587,
  "éļıæĹ¶": 102422,
  "å¿µä½Ľ": 115150,
  "Â§Ãĥ": 96784,
  "æ¶Ł": 120497,
  "eddar": 77616,
  "ĠFirebaseFirestore": 92240,
  "Ġvolcan": 35273,
  "ĠIntro": 51986,
  "#'": 94182,
  "cba": 93829,
  "instanc": 33005,
  "Ġpoultry": 65528,
  ".new": 4618,
  "Ï°": 148148,
  "Üł": 146725,
  "à²ª": 150439,
  "ĠÐŁÐ°": 133059,
  "å®¢äºº": 105315,
  "Éł": 148279,
  "ĠØ§ÙĦØ¯ÙĬÙħÙĤØ±Ø§": 143849,
  "uced": 23967,
  "Ð²ÐµÐ´ÐµÐ½Ð¸Ñı": 133074,
  "ĠÄĳáº¹": 128500,
  "VIOUS": 76477,
  "ðŁĨĵ": 149914,
  "éģĩéļ¾": 118061,
  "èı©æıĲ": 112039,
  "ĠBeach": 12721,
  "Implicit": 59558,
  "[unit": 96354,
  "BundleOrNil": 85315,
  "éĿ¶": 112073,
[...]
